{
  "version": "1.0",
  "truncation": null,
  "padding": null,
  "added_tokens": [
    {
      "id": 0,
      "content": "[PAD]",
      "single_word": false,
      "lstrip": false,
      "rstrip": false,
      "normalized": false,
      "special": true
    },
    {
      "id": 1,
      "content": "[UNK]",
      "single_word": false,
      "lstrip": false,
      "rstrip": false,
      "normalized": false,
      "special": true
    },
    {
      "id": 2,
      "content": "[BOS]",
      "single_word": false,
      "lstrip": false,
      "rstrip": false,
      "normalized": false,
      "special": true
    },
    {
      "id": 3,
      "content": "[EOS]",
      "single_word": false,
      "lstrip": false,
      "rstrip": false,
      "normalized": false,
      "special": true
    }
  ],
  "normalizer": null,
  "pre_tokenizer": {
    "type": "Whitespace"
  },
  "post_processor": null,
  "decoder": null,
  "model": {
    "type": "BPE",
    "dropout": null,
    "unk_token": null,
    "continuing_subword_prefix": null,
    "end_of_word_suffix": null,
    "fuse_unk": false,
    "byte_fallback": false,
    "ignore_merges": false,
    "vocab": {
      "[PAD]": 0,
      "[UNK]": 1,
      "[BOS]": 2,
      "[EOS]": 3,
      "\u0000": 4,
      "!": 5,
      "\"": 6,
      "#": 7,
      "$": 8,
      "%": 9,
      "&": 10,
      "'": 11,
      "(": 12,
      ")": 13,
      "*": 14,
      "+": 15,
      ",": 16,
      "-": 17,
      ".": 18,
      "/": 19,
      "0": 20,
      "1": 21,
      "2": 22,
      "3": 23,
      "4": 24,
      "5": 25,
      "6": 26,
      "7": 27,
      "8": 28,
      "9": 29,
      ":": 30,
      ";": 31,
      "<": 32,
      "=": 33,
      ">": 34,
      "?": 35,
      "@": 36,
      "A": 37,
      "B": 38,
      "C": 39,
      "D": 40,
      "E": 41,
      "F": 42,
      "G": 43,
      "H": 44,
      "I": 45,
      "J": 46,
      "K": 47,
      "L": 48,
      "M": 49,
      "N": 50,
      "O": 51,
      "P": 52,
      "Q": 53,
      "R": 54,
      "S": 55,
      "T": 56,
      "U": 57,
      "V": 58,
      "W": 59,
      "X": 60,
      "Y": 61,
      "Z": 62,
      "[": 63,
      "\\": 64,
      "]": 65,
      "^": 66,
      "_": 67,
      "`": 68,
      "a": 69,
      "b": 70,
      "c": 71,
      "d": 72,
      "e": 73,
      "f": 74,
      "g": 75,
      "h": 76,
      "i": 77,
      "j": 78,
      "k": 79,
      "l": 80,
      "m": 81,
      "n": 82,
      "o": 83,
      "p": 84,
      "q": 85,
      "r": 86,
      "s": 87,
      "t": 88,
      "u": 89,
      "v": 90,
      "w": 91,
      "x": 92,
      "y": 93,
      "z": 94,
      "{": 95,
      "|": 96,
      "}": 97,
      "~": 98,
      "": 99,
      "": 100,
      "": 101,
      "": 102,
      "": 103,
      "": 104,
      "£": 105,
      "¥": 106,
      "§": 107,
      "©": 108,
      "«": 109,
      "­": 110,
      "®": 111,
      "°": 112,
      "²": 113,
      "µ": 114,
      "·": 115,
      "»": 116,
      "½": 117,
      "¿": 118,
      "Á": 119,
      "Ç": 120,
      "É": 121,
      "Ö": 122,
      "×": 123,
      "Ø": 124,
      "ß": 125,
      "à": 126,
      "á": 127,
      "â": 128,
      "ã": 129,
      "ä": 130,
      "å": 131,
      "æ": 132,
      "ç": 133,
      "è": 134,
      "é": 135,
      "ê": 136,
      "ë": 137,
      "í": 138,
      "ï": 139,
      "ñ": 140,
      "ò": 141,
      "ó": 142,
      "ô": 143,
      "ö": 144,
      "ø": 145,
      "ú": 146,
      "ü": 147,
      "ā": 148,
      "ć": 149,
      "Č": 150,
      "č": 151,
      "Đ": 152,
      "Ł": 153,
      "ń": 154,
      "ō": 155,
      "ś": 156,
      "š": 157,
      "ų": 158,
      "ž": 159,
      "ə": 160,
      "ɛ": 161,
      "ɡ": 162,
      "ʊ": 163,
      "Ε": 164,
      "ά": 165,
      "β": 166,
      "γ": 167,
      "ε": 168,
      "η": 169,
      "ι": 170,
      "κ": 171,
      "λ": 172,
      "ν": 173,
      "Б": 174,
      "К": 175,
      "М": 176,
      "Р": 177,
      "С": 178,
      "У": 179,
      "а": 180,
      "г": 181,
      "д": 182,
      "е": 183,
      "з": 184,
      "и": 185,
      "й": 186,
      "к": 187,
      "л": 188,
      "н": 189,
      "о": 190,
      "п": 191,
      "р": 192,
      "с": 193,
      "у": 194,
      "ч": 195,
      "ъ": 196,
      "ы": 197,
      "ь": 198,
      "і": 199,
      "ї": 200,
      "ա": 201,
      "ե": 202,
      "հ": 203,
      "յ": 204,
      "ն": 205,
      "ր": 206,
      "ב": 207,
      "י": 208,
      "ע": 209,
      "ר": 210,
      "ת": 211,
      "أ": 212,
      "ا": 213,
      "ب": 214,
      "ت": 215,
      "ح": 216,
      "د": 217,
      "ر": 218,
      "س": 219,
      "ط": 220,
      "ع": 221,
      "ف": 222,
      "ق": 223,
      "ك": 224,
      "ل": 225,
      "م": 226,
      "ن": 227,
      "ه": 228,
      "و": 229,
      "ي": 230,
      "َ": 231,
      "ّ": 232,
      "ْ": 233,
      "پ": 234,
      "ښ": 235,
      "ک": 236,
      "ی": 237,
      "ە": 238,
      "ठ": 239,
      "द": 240,
      "न": 241,
      "म": 242,
      "र": 243,
      "ह": 244,
      "ा": 245,
      "ि": 246,
      "ी": 247,
      "्": 248,
      "ং": 249,
      "ব": 250,
      "ল": 251,
      "া": 252,
      "ਜ": 253,
      "ਪ": 254,
      "ਬ": 255,
      "ਾ": 256,
      "ੀ": 257,
      "ੰ": 258,
      "ગ": 259,
      "જ": 260,
      "ત": 261,
      "ર": 262,
      "ા": 263,
      "ી": 264,
      "ુ": 265,
      "த": 266,
      "ம": 267,
      "ழ": 268,
      "ி": 269,
      "்": 270,
      "ං": 271,
      "ල": 272,
      "ස": 273,
      "හ": 274,
      "ි": 275,
      "ท": 276,
      "ภ": 277,
      "ย": 278,
      "ษ": 279,
      "า": 280,
      "ไ": 281,
      "န": 282,
      "ဘ": 283,
      "မ": 284,
      "သ": 285,
      "ာ": 286,
      "်": 287,
      "ြ": 288,
      "ა": 289,
      "ე": 290,
      "თ": 291,
      "ი": 292,
      "ლ": 293,
      "ნ": 294,
      "რ": 295,
      "უ": 296,
      "ქ": 297,
      "ማ": 298,
      "ር": 299,
      "ኛ": 300,
      "አ": 301,
      "ḷ": 302,
      "ṁ": 303,
      "ṭ": 304,
      "ế": 305,
      "ệ": 306,
      "​": 307,
      "‎": 308,
      "‐": 309,
      "–": 310,
      "—": 311,
      "―": 312,
      "‘": 313,
      "’": 314,
      "“": 315,
      "”": 316,
      "•": 317,
      "…": 318,
      "′": 319,
      "″": 320,
      "₂": 321,
      "€": 322,
      "⅜": 323,
      "−": 324,
      "≈": 325,
      "≠": 326,
      "≥": 327,
      "►": 328,
      "◊": 329,
      "●": 330,
      "★": 331,
      "♡": 332,
      "♦": 333,
      "⛽": 334,
      "✌": 335,
      "❤": 336,
      "ⴰ": 337,
      "ⴱ": 338,
      "ⴻ": 339,
      "ⵄ": 340,
      "ⵉ": 341,
      "ⵍ": 342,
      "ⵎ": 343,
      "ⵏ": 344,
      "ⵓ": 345,
      "ⵙ": 346,
      "ⵜ": 347,
      "ⵟ": 348,
      "ⵡ": 349,
      "中": 350,
      "享": 351,
      "体": 352,
      "分": 353,
      "友": 354,
      "台": 355,
      "學": 356,
      "弁": 357,
      "教": 358,
      "文": 359,
      "日": 360,
      "朋": 361,
      "本": 362,
      "灣": 363,
      "版": 364,
      "简": 365,
      "系": 366,
      "給": 367,
      "繁": 368,
      "語": 369,
      "面": 370,
      "頁": 371,
      "駅": 372,
      "體": 373,
      "국": 374,
      "어": 375,
      "한": 376,
      "️": 377,
      "（": 378,
      "）": 379,
      "🍁": 380,
      "🍴": 381,
      "🐒": 382,
      "🐘": 383,
      "🐧": 384,
      "👫": 385,
      "💀": 386,
      "💖": 387,
      "💜": 388,
      "😅": 389,
      "😉": 390,
      "😍": 391,
      "🙂": 392,
      "🚃": 393,
      "🦁": 394,
      "\u0000\u0000": 395,
      "\u0000\u0000\u0000\u0000": 396,
      "\u0000\u0000\u0000\u0000\u0000\u0000\u0000\u0000": 397,
      "th": 398,
      "\u0000\u0000\u0000\u0000\u0000\u0000\u0000\u0000\u0000\u0000\u0000\u0000\u0000\u0000\u0000\u0000": 399,
      "in": 400,
      "er": 401,
      "an": 402,
      "on": 403,
      "the": 404,
      "re": 405,
      "00": 406,
      "at": 407,
      "en": 408,
      "or": 409,
      "st": 410,
      "\u0000\u0000\u0000\u0000\u0000\u0000\u0000\u0000\u0000\u0000\u0000\u0000\u0000\u0000\u0000\u0000\u0000\u0000\u0000\u0000\u0000\u0000\u0000\u0000\u0000\u0000\u0000\u0000\u0000\u0000\u0000\u0000": 411,
      "al": 412,
      "ed": 413,
      "ou": 414,
      "ing": 415,
      "ar": 416,
      "to": 417,
      "is": 418,
      "es": 419,
      "it": 420,
      "of": 421,
      "and": 422,
      "as": 423,
      "ic": 424,
      "le": 425,
      "ion": 426,
      "om": 427,
      "he": 428,
      "0000": 429,
      "ent": 430,
      "se": 431,
      "\u0000\u0000\u0000\u0000\u0000\u0000\u0000\u0000\u0000\u0000\u0000\u0000\u0000\u0000\u0000\u0000\u0000\u0000\u0000\u0000\u0000\u0000\u0000\u0000\u0000\u0000\u0000\u0000\u0000\u0000\u0000\u0000\u0000\u0000\u0000\u0000\u0000\u0000\u0000\u0000\u0000\u0000\u0000\u0000\u0000\u0000\u0000\u0000\u0000\u0000\u0000\u0000\u0000\u0000\u0000\u0000\u0000\u0000\u0000\u0000\u0000\u0000\u0000\u0000": 432,
      "ac": 433,
      "be": 434,
      "il": 435,
      "ve": 436,
      "ly": 437,
      "id": 438,
      "ro": 439,
      "for": 440,
      "ad": 441,
      "that": 442,
      "ch": 443,
      "ay": 444,
      "am": 445,
      "im": 446,
      "lo": 447,
      "ig": 448,
      "wh": 449,
      "ver": 450,
      "no": 451,
      "ol": 452,
      "et": 453,
      "el": 454,
      "ut": 455,
      "su": 456,
      "ct": 457,
      "are": 458,
      "un": 459,
      "con": 460,
      "ith": 461,
      "ir": 462,
      "ation": 463,
      "ab": 464,
      "ce": 465,
      "ter": 466,
      "ag": 467,
      "de": 468,
      "The": 469,
      "000": 470,
      "with": 471,
      "li": 472,
      "ere": 473,
      "mo": 474,
      "ur": 475,
      "com": 476,
      "ha": 477,
      "pe": 478,
      "us": 479,
      "ers": 480,
      "te": 481,
      "we": 482,
      "0000000": 483,
      "ill": 484,
      "was": 485,
      "po": 486,
      "ne": 487,
      "pro": 488,
      "ke": 489,
      "you": 490,
      "ld": 491,
      "tr": 492,
      "out": 493,
      "ate": 494,
      "ment": 495,
      "res": 496,
      "ul": 497,
      "if": 498,
      "fr": 499,
      "all": 500,
      "ex": 501,
      "ap": 502,
      "op": 503,
      "pl": 504,
      "ain": 505,
      "ow": 506,
      "igh": 507,
      "oun": 508,
      "one": 509,
      "so": 510,
      "ust": 511,
      "have": 512,
      "\u0000\u0000\u0000\u0000\u0000\u0000\u0000\u0000\u0000\u0000\u0000\u0000\u0000\u0000\u0000\u0000\u0000\u0000\u0000\u0000\u0000\u0000\u0000\u0000\u0000\u0000\u0000\u0000\u0000\u0000\u0000\u0000\u0000\u0000\u0000\u0000\u0000\u0000\u0000\u0000\u0000\u0000\u0000\u0000\u0000\u0000\u0000\u0000\u0000\u0000\u0000\u0000\u0000\u0000\u0000\u0000\u0000\u0000\u0000\u0000\u0000\u0000\u0000\u0000\u0000\u0000\u0000\u0000\u0000\u0000\u0000\u0000\u0000\u0000\u0000\u0000\u0000\u0000\u0000\u0000\u0000\u0000\u0000\u0000\u0000\u0000\u0000\u0000\u0000\u0000\u0000\u0000\u0000\u0000\u0000\u0000\u0000\u0000\u0000\u0000\u0000\u0000\u0000\u0000\u0000\u0000\u0000\u0000\u0000\u0000\u0000\u0000\u0000\u0000\u0000\u0000\u0000\u0000\u0000\u0000\u0000\u0000\u0000\u0000\u0000\u0000\u0000\u0000": 513,
      "ist": 514,
      "his": 515,
      "art": 516,
      "ity": 517,
      "sh": 518,
      "by": 519,
      "em": 520,
      "not": 521,
      "ive": 522,
      "ant": 523,
      "ould": 524,
      "ther": 525,
      "um": 526,
      "our": 527,
      "go": 528,
      "ess": 529,
      "this": 530,
      "qu": 531,
      "ies": 532,
      "fe": 533,
      "sa": 534,
      "from": 535,
      "per": 536,
      "act": 537,
      "do": 538,
      "ort": 539,
      "ge": 540,
      "ally": 541,
      "ack": 542,
      "end": 543,
      "ight": 544,
      "wor": 545,
      "ast": 546,
      "co": 547,
      "01": 548,
      "ear": 549,
      "has": 550,
      "iv": 551,
      "pr": 552,
      "but": 553,
      "ome": 554,
      "up": 555,
      "ard": 556,
      "man": 557,
      "cl": 558,
      "In": 559,
      "gh": 560,
      "od": 561,
      "ell": 562,
      "me": 563,
      "ci": 564,
      "can": 565,
      "said": 566,
      "au": 567,
      "they": 568,
      "Th": 569,
      "will": 570,
      "gr": 571,
      "ind": 572,
      "ans": 573,
      "port": 574,
      "ak": 575,
      "ine": 576,
      "ich": 577,
      "ough": 578,
      "af": 579,
      "ud": 580,
      "ide": 581,
      "age": 582,
      "who": 583,
      "ong": 584,
      "ok": 585,
      "comp": 586,
      "more": 587,
      "ice": 588,
      "ound": 589,
      "int": 590,
      "ev": 591,
      "cr": 592,
      "ure": 593,
      "bo": 594,
      "fer": 595,
      "est": 596,
      "der": 597,
      "ated": 598,
      "99": 599,
      "their": 600,
      "ame": 601,
      "ence": 602,
      "some": 603,
      "now": 604,
      "ous": 605,
      "ber": 606,
      "ions": 607,
      "tim": 608,
      "about": 609,
      "It": 610,
      "ire": 611,
      "ie": 612,
      "ia": 613,
      "str": 614,
      "which": 615,
      "were": 616,
      "bl": 617,
      "very": 618,
      "way": 619,
      "had": 620,
      "year": 621,
      "part": 622,
      "would": 623,
      "ake": 624,
      "any": 625,
      "able": 626,
      "iz": 627,
      "thing": 628,
      "low": 629,
      "ip": 630,
      "like": 631,
      "ign": 632,
      "get": 633,
      "cre": 634,
      "been": 635,
      "day": 636,
      "work": 637,
      "ser": 638,
      "her": 639,
      "ck": 640,
      "ot": 641,
      "ore": 642,
      "av": 643,
      "other": 644,
      "own": 645,
      "over": 646,
      "xt": 647,
      "ach": 648,
      "dis": 649,
      "off": 650,
      "its": 651,
      "201": 652,
      "ary": 653,
      "ical": 654,
      "cont": 655,
      "sp": 656,
      "than": 657,
      "du": 658,
      "ace": 659,
      "mer": 660,
      "ep": 661,
      "ho": 662,
      "ib": 663,
      "new": 664,
      "ial": 665,
      "there": 666,
      "ef": 667,
      "ty": 668,
      "ite": 669,
      "ople": 670,
      "pos": 671,
      "An": 672,
      "ts": 673,
      "ass": 674,
      "my": 675,
      "aw": 676,
      "ish": 677,
      "pres": 678,
      "ail": 679,
      "cent": 680,
      "pre": 681,
      "St": 682,
      "them": 683,
      "He": 684,
      "Wh": 685,
      "inter": 686,
      "people": 687,
      "time": 688,
      "also": 689,
      "br": 690,
      "ian": 691,
      "say": 692,
      "just": 693,
      "ink": 694,
      "ree": 695,
      "ren": 696,
      "ue": 697,
      ".”": 698,
      "tw": 699,
      "ark": 700,
      "ll": 701,
      "ile": 702,
      "44": 703,
      "ations": 704,
      "what": 705,
      "play": 706,
      "ick": 707,
      "19": 708,
      "pol": 709,
      "cor": 710,
      "ory": 711,
      "min": 712,
      "when": 713,
      "dr": 714,
      "We": 715,
      "fir": 716,
      "ase": 717,
      "ction": 718,
      "Ch": 719,
      "into": 720,
      "ens": 721,
      "ors": 722,
      "\u0000\u0000\u0000\u0000\u0000\u0000\u0000\u0000\u0000\u0000\u0000\u0000\u0000\u0000\u0000\u0000\u0000\u0000\u0000\u0000\u0000\u0000\u0000\u0000\u0000\u0000\u0000\u0000\u0000\u0000\u0000\u0000\u0000\u0000\u0000\u0000\u0000\u0000\u0000\u0000\u0000\u0000\u0000\u0000\u0000\u0000\u0000\u0000": 723,
      "your": 724,
      "ob": 725,
      "most": 726,
      "enc": 727,
      "spe": 728,
      "mon": 729,
      "ition": 730,
      "des": 731,
      "cau": 732,
      "ful": 733,
      ",”": 734,
      "This": 735,
      "back": 736,
      "gu": 737,
      "ple": 738,
      "pt": 739,
      "know": 740,
      "ates": 741,
      "cause": 742,
      "med": 743,
      "ance": 744,
      "old": 745,
      "\u0000\u0000\u0000\u0000\u0000\u0000\u0000\u0000\u0000\u0000\u0000\u0000\u0000\u0000\u0000\u0000\u0000\u0000\u0000\u0000\u0000\u0000\u0000\u0000\u0000\u0000\u0000\u0000\u0000\u0000\u0000\u0000\u0000\u0000\u0000\u0000\u0000\u0000\u0000\u0000\u0000\u0000\u0000\u0000\u0000\u0000\u0000\u0000\u0000\u0000\u0000\u0000\u0000\u0000\u0000\u0000": 746,
      "bet": 747,
      "\u0000\u0000\u0000\u0000\u0000\u0000\u0000\u0000\u0000\u0000\u0000\u0000\u0000\u0000\u0000\u0000\u0000\u0000\u0000\u0000\u0000\u0000\u0000\u0000\u0000\u0000\u0000\u0000\u0000\u0000\u0000\u0000\u0000\u0000\u0000\u0000\u0000\u0000\u0000\u0000\u0000\u0000\u0000\u0000\u0000\u0000\u0000\u0000\u0000\u0000\u0000\u0000\u0000\u0000\u0000\u0000\u0000\u0000\u0000\u0000\u0000\u0000\u0000\u0000\u0000\u0000\u0000\u0000\u0000\u0000\u0000\u0000\u0000\u0000\u0000\u0000\u0000\u0000\u0000\u0000\u0000\u0000\u0000\u0000\u0000\u0000\u0000\u0000\u0000\u0000\u0000\u0000\u0000\u0000\u0000\u0000": 748,
      "gen": 749,
      "But": 750,
      "she": 751,
      "ild": 752,
      "ident": 753,
      "dif": 754,
      "after": 755,
      "log": 756,
      "\u0000\u0000\u0000\u0000\u0000\u0000\u0000\u0000\u0000\u0000\u0000\u0000\u0000\u0000\u0000\u0000\u0000\u0000\u0000\u0000\u0000\u0000\u0000\u0000\u0000\u0000\u0000\u0000\u0000\u0000\u0000\u0000\u0000\u0000\u0000\u0000\u0000\u0000\u0000\u0000\u0000\u0000\u0000\u0000\u0000\u0000\u0000\u0000\u0000\u0000\u0000\u0000\u0000\u0000\u0000\u0000\u0000\u0000\u0000\u0000\u0000\u0000\u0000\u0000\u0000\u0000\u0000\u0000\u0000\u0000\u0000\u0000\u0000\u0000\u0000\u0000\u0000\u0000\u0000\u0000\u0000\u0000\u0000\u0000\u0000\u0000\u0000\u0000\u0000\u0000\u0000\u0000\u0000\u0000\u0000\u0000\u0000\u0000\u0000\u0000\u0000\u0000\u0000\u0000\u0000\u0000\u0000\u0000\u0000\u0000\u0000\u0000\u0000\u0000\u0000\u0000\u0000\u0000\u0000\u0000\u0000\u0000\u0000\u0000\u0000\u0000\u0000\u0000\u0000\u0000\u0000\u0000\u0000\u0000\u0000\u0000\u0000\u0000\u0000\u0000\u0000\u0000\u0000\u0000\u0000\u0000\u0000\u0000\u0000\u0000\u0000\u0000\u0000\u0000\u0000\u0000\u0000\u0000\u0000\u0000": 757,
      "Tr": 758,
      "ubl": 759,
      ".\"": 760,
      "vers": 761,
      "ative": 762,
      "coun": 763,
      "ra": 764,
      "\u0000\u0000\u0000\u0000\u0000\u0000\u0000\u0000\u0000\u0000\u0000\u0000\u0000\u0000\u0000\u0000\u0000\u0000\u0000\u0000\u0000\u0000\u0000\u0000\u0000\u0000\u0000\u0000\u0000\u0000\u0000\u0000\u0000\u0000\u0000\u0000\u0000\u0000\u0000\u0000\u0000\u0000\u0000\u0000\u0000\u0000\u0000\u0000\u0000\u0000\u0000\u0000\u0000\u0000\u0000\u0000\u0000\u0000\u0000\u0000\u0000\u0000\u0000\u0000\u0000\u0000\u0000\u0000\u0000\u0000\u0000\u0000\u0000\u0000\u0000\u0000\u0000\u0000\u0000\u0000\u0000\u0000\u0000\u0000\u0000\u0000\u0000\u0000\u0000\u0000\u0000\u0000\u0000\u0000\u0000\u0000\u0000\u0000\u0000\u0000\u0000\u0000\u0000\u0000\u0000\u0000\u0000\u0000\u0000\u0000\u0000\u0000\u0000\u0000\u0000\u0000\u0000\u0000\u0000\u0000\u0000\u0000\u0000\u0000\u0000\u0000\u0000\u0000\u0000\u0000\u0000\u0000\u0000\u0000\u0000\u0000\u0000\u0000\u0000\u0000\u0000\u0000\u0000\u0000\u0000\u0000\u0000\u0000\u0000\u0000\u0000\u0000\u0000\u0000\u0000\u0000\u0000\u0000\u0000\u0000\u0000\u0000\u0000\u0000\u0000\u0000\u0000\u0000": 765,
      "don": 766,
      "ose": 767,
      "first": 768,
      "\u0000\u0000\u0000\u0000\u0000\u0000\u0000\u0000\u0000\u0000\u0000\u0000\u0000\u0000\u0000\u0000\u0000\u0000\u0000\u0000\u0000\u0000\u0000\u0000\u0000\u0000\u0000\u0000\u0000\u0000\u0000\u0000\u0000\u0000\u0000\u0000\u0000\u0000\u0000\u0000\u0000\u0000\u0000\u0000\u0000\u0000\u0000\u0000\u0000\u0000\u0000\u0000\u0000\u0000\u0000\u0000\u0000\u0000\u0000\u0000\u0000\u0000\u0000\u0000\u0000\u0000\u0000\u0000\u0000\u0000\u0000\u0000\u0000\u0000\u0000\u0000\u0000\u0000\u0000\u0000\u0000\u0000\u0000\u0000\u0000\u0000\u0000\u0000\u0000\u0000\u0000\u0000\u0000\u0000\u0000\u0000\u0000\u0000\u0000\u0000": 769,
      "tem": 770,
      "att": 771,
      "cur": 772,
      "Ne": 773,
      "644": 774,
      "two": 775,
      "fect": 776,
      "\u0000\u0000\u0000\u0000\u0000\u0000\u0000\u0000\u0000\u0000\u0000\u0000\u0000\u0000\u0000\u0000\u0000\u0000\u0000\u0000\u0000\u0000\u0000\u0000\u0000\u0000\u0000\u0000\u0000\u0000\u0000\u0000\u0000\u0000\u0000\u0000\u0000\u0000\u0000\u0000\u0000\u0000\u0000\u0000\u0000\u0000\u0000\u0000\u0000\u0000\u0000\u0000\u0000\u0000\u0000\u0000\u0000\u0000\u0000\u0000\u0000\u0000\u0000\u0000\u0000": 777,
      "txt": 778,
      "00000000000": 779,
      "0000644": 780,
      "ustar": 781,
      "cess": 782,
      "read": 783,
      "him": 784,
      "pp": 785,
      "could": 786,
      "ang": 787,
      "10": 788,
      "ph": 789,
      "form": 790,
      "Re": 791,
      "serv": 792,
      "only": 793,
      "land": 794,
      "ting": 795,
      "sel": 796,
      "ry": 797,
      "how": 798,
      "As": 799,
      "reat": 800,
      "ade": 801,
      "ning": 802,
      "want": 803,
      "ious": 804,
      "ult": 805,
      "ek": 806,
      "fore": 807,
      "Un": 808,
      "sy": 809,
      "mat": 810,
      "ments": 811,
      ",\"": 812,
      "did": 813,
      "fl": 814,
      "arch": 815,
      "add": 816,
      "mu": 817,
      "rel": 818,
      "cho": 819,
      "And": 820,
      "need": 821,
      "bu": 822,
      "ific": 823,
      "ied": 824,
      "because": 825,
      "io": 826,
      "row": 827,
      "air": 828,
      "down": 829,
      "use": 830,
      "ason": 831,
      "under": 832,
      "point": 833,
      "think": 834,
      "many": 835,
      "ual": 836,
      "try": 837,
      "iss": 838,
      "used": 839,
      "where": 840,
      "reg": 841,
      "look": 842,
      "hel": 843,
      "fin": 844,
      "differ": 845,
      "fun": 846,
      "Amer": 847,
      "ect": 848,
      "New": 849,
      "come": 850,
      "incl": 851,
      "Americ": 852,
      "then": 853,
      "ise": 854,
      "ress": 855,
      "\u0000\u0000\u0000\u0000\u0000\u0000\u0000\u0000\u0000\u0000\u0000\u0000\u0000\u0000\u0000\u0000\u0000\u0000\u0000\u0000\u0000\u0000\u0000\u0000\u0000\u0000\u0000\u0000\u0000\u0000\u0000\u0000\u0000\u0000\u0000\u0000\u0000\u0000\u0000\u0000\u0000\u0000\u0000\u0000\u0000\u0000\u0000\u0000\u0000\u0000\u0000\u0000\u0000\u0000\u0000\u0000\u0000\u0000\u0000\u0000\u0000\u0000\u0000\u0000\u0000\u0000\u0000\u0000\u0000\u0000\u0000\u0000\u0000\u0000\u0000\u0000\u0000\u0000\u0000\u0000\u0000\u0000\u0000\u0000\u0000\u0000\u0000\u0000\u0000\u0000\u0000\u0000\u0000\u0000\u0000\u0000\u0000\u0000\u0000\u0000\u0000\u0000\u0000\u0000\u0000\u0000\u0000\u0000\u0000\u0000\u0000\u0000\u0000\u0000\u0000\u0000\u0000\u0000\u0000\u0000\u0000\u0000\u0000\u0000\u0000\u0000\u0000\u0000\u0000\u0000\u0000\u0000\u0000\u0000\u0000\u0000\u0000\u0000\u0000\u0000\u0000\u0000\u0000\u0000\u0000\u0000\u0000\u0000\u0000\u0000\u0000\u0000\u0000\u0000\u0000\u0000\u0000\u0000\u0000\u0000\u0000\u0000\u0000\u0000\u0000\u0000\u0000\u0000\u0000\u0000\u0000\u0000\u0000\u0000\u0000\u0000\u0000\u0000\u0000\u0000\u0000\u0000\u0000\u0000\u0000\u0000\u0000\u0000\u0000\u0000\u0000\u0000\u0000\u0000\u0000\u0000\u0000\u0000\u0000\u0000\u0000\u0000\u0000\u0000\u0000\u0000\u0000\u0000\u0000\u0000\u0000\u0000\u0000\u0000\u0000\u0000\u0000\u0000\u0000\u0000\u0000\u0000\u0000\u0000\u0000\u0000\u0000\u0000\u0000\u0000\u0000\u0000\u0000\u0000\u0000\u0000\u0000\u0000\u0000\u0000\u0000\u0000\u0000\u0000\u0000\u0000\u0000\u0000\u0000\u0000\u0000\u0000\u0000\u0000\u0000\u0000": 856,
      "ents": 857,
      "So": 858,
      "may": 859,
      "years": 860,
      "De": 861,
      "ted": 862,
      "rough": 863,
      "stud": 864,
      "Con": 865,
      "ced": 866,
      "make": 867,
      "ublic": 868,
      "ating": 869,
      "right": 870,
      "comm": 871,
      "rit": 872,
      "again": 873,
      "even": 874,
      "every": 875,
      "should": 876,
      "prov": 877,
      "12": 878,
      "red": 879,
      "being": 880,
      "going": 881,
      "much": 882,
      "ational": 883,
      "team": 884,
      "last": 885,
      "15": 886,
      "oc": 887,
      "well": 888,
      ").": 889,
      "though": 890,
      "call": 891,
      "high": 892,
      "cer": 893,
      "ics": 894,
      "test": 895,
      "these": 896,
      "015": 897,
      "char": 898,
      "sur": 899,
      "produ": 900,
      "ater": 901,
      "ps": 902,
      "lect": 903,
      "less": 904,
      "see": 905,
      "No": 906,
      "sup": 907,
      "18": 908,
      "ble": 909,
      "issu": 910,
      "iew": 911,
      "ject": 912,
      "ss": 913,
      "ask": 914,
      "soci": 915,
      "set": 916,
      "ump": 917,
      "lar": 918,
      "ank": 919,
      "col": 920,
      "ten": 921,
      "ys": 922,
      "ased": 923,
      "long": 924,
      "pon": 925,
      "gener": 926,
      "),": 927,
      "mem": 928,
      "ited": 929,
      "state": 930,
      "those": 931,
      "through": 932,
      "tur": 933,
      "als": 934,
      "cord": 935,
      "main": 936,
      "ible": 937,
      "20": 938,
      "report": 939,
      "does": 940,
      "week": 941,
      "wer": 942,
      "loc": 943,
      "ath": 944,
      "ins": 945,
      "start": 946,
      "fact": 947,
      "show": 948,
      "Al": 949,
      "ict": 950,
      "ism": 951,
      "self": 952,
      "ange": 953,
      "car": 954,
      "stand": 955,
      "ities": 956,
      "leg": 957,
      "sim": 958,
      "ween": 959,
      "You": 960,
      "sm": 961,
      "tal": 962,
      "pers": 963,
      "tain": 964,
      "cond": 965,
      "ix": 966,
      "amp": 967,
      "lear": 968,
      "There": 969,
      "200": 970,
      "such": 971,
      "ings": 972,
      "ility": 973,
      "top": 974,
      "che": 975,
      "ann": 976,
      "here": 977,
      "mark": 978,
      "If": 979,
      "ince": 980,
      "view": 981,
      "comple": 982,
      "cons": 983,
      "aking": 984,
      "ave": 985,
      "uring": 986,
      "ash": 987,
      "illion": 988,
      "ces": 989,
      "For": 990,
      "ular": 991,
      "before": 992,
      "ton": 993,
      "ily": 994,
      "ters": 995,
      "between": 996,
      "Ar": 997,
      "quest": 998,
      "still": 999,
      "says": 1000,
      "11": 1001,
      "Fr": 1002,
      "ff": 1003,
      "ner": 1004,
      "Le": 1005,
      "vo": 1006,
      "sul": 1007,
      "game": 1008,
      "30": 1009,
      "ven": 1010,
      "while": 1011,
      "found": 1012,
      "ng": 1013,
      "put": 1014,
      "sub": 1015,
      "head": 1016,
      "les": 1017,
      "vern": 1018,
      "led": 1019,
      "os": 1020,
      "ese": 1021,
      "pect": 1022,
      "effect": 1023,
      "includ": 1024,
      "ving": 1025,
      "stem": 1026,
      "good": 1027,
      "That": 1028,
      "clo": 1029,
      "govern": 1030,
      "US": 1031,
      "16": 1032,
      "ste": 1033,
      "hand": 1034,
      "made": 1035,
      "Trump": 1036,
      "17": 1037,
      "line": 1038,
      "They": 1039,
      "cut": 1040,
      "ms": 1041,
      "world": 1042,
      "three": 1043,
      "respon": 1044,
      "sign": 1045,
      "ped": 1046,
      "Se": 1047,
      "design": 1048,
      "take": 1049,
      "stru": 1050,
      "wom": 1051,
      "arr": 1052,
      "lead": 1053,
      "la": 1054,
      "find": 1055,
      "search": 1056,
      "Is": 1057,
      "eng": 1058,
      "plo": 1059,
      "grou": 1060,
      "--": 1061,
      "ma": 1062,
      "against": 1063,
      "law": 1064,
      "offic": 1065,
      "book": 1066,
      "vis": 1067,
      "really": 1068,
      "ually": 1069,
      "contin": 1070,
      "real": 1071,
      "sc": 1072,
      "ward": 1073,
      "ator": 1074,
      "list": 1075,
      "turn": 1076,
      "13": 1077,
      "gest": 1078,
      "support": 1079,
      "del": 1080,
      "gan": 1081,
      "same": 1082,
      "let": 1083,
      "uss": 1084,
      "ize": 1085,
      "around": 1086,
      "dec": 1087,
      "ood": 1088,
      "public": 1089,
      "uro": 1090,
      "..": 1091,
      "14": 1092,
      "lit": 1093,
      "incre": 1094,
      "exper": 1095,
      "999": 1096,
      "too": 1097,
      "ives": 1098,
      "ivers": 1099,
      "sure": 1100,
      "big": 1101,
      "side": 1102,
      "atch": 1103,
      "ost": 1104,
      "cept": 1105,
      "Te": 1106,
      "ves": 1107,
      "ars": 1108,
      "got": 1109,
      "system": 1110,
      "ists": 1111,
      "different": 1112,
      "iel": 1113,
      "lin": 1114,
      "On": 1115,
      "par": 1116,
      "50": 1117,
      "ety": 1118,
      "poss": 1119,
      "person": 1120,
      "miss": 1121,
      "sing": 1122,
      "vol": 1123,
      "vel": 1124,
      ".[": 1125,
      "pay": 1126,
      "val": 1127,
      "velo": 1128,
      "ved": 1129,
      "lot": 1130,
      "ub": 1131,
      "def": 1132,
      "num": 1133,
      "cial": 1134,
      "ale": 1135,
      "ically": 1136,
      "ush": 1137,
      "trans": 1138,
      "happ": 1139,
      "ences": 1140,
      "month": 1141,
      "22": 1142,
      "vest": 1143,
      "resul": 1144,
      "ames": 1145,
      "ollow": 1146,
      "cap": 1147,
      "national": 1148,
      "ways": 1149,
      "ds": 1150,
      "polit": 1151,
      "cour": 1152,
      "ax": 1153,
      "government": 1154,
      "ared": 1155,
      "bre": 1156,
      "light": 1157,
      "order": 1158,
      "percent": 1159,
      "logy": 1160,
      "aim": 1161,
      "Euro": 1162,
      "ca": 1163,
      "rele": 1164,
      "place": 1165,
      "wever": 1166,
      "Com": 1167,
      "Be": 1168,
      "vir": 1169,
      "develo": 1170,
      "using": 1171,
      "tle": 1172,
      "ures": 1173,
      "iver": 1174,
      "0099": 1175,
      "beli": 1176,
      "aren": 1177,
      "ized": 1178,
      "press": 1179,
      "issue": 1180,
      "ik": 1181,
      "ier": 1182,
      "both": 1183,
      "ah": 1184,
      "det": 1185,
      "chool": 1186,
      "bod": 1187,
      "24": 1188,
      "run": 1189,
      "open": 1190,
      "appe": 1191,
      "dire": 1192,
      "requ": 1193,
      "life": 1194,
      "ense": 1195,
      "alth": 1196,
      "ouse": 1197,
      "akes": 1198,
      "present": 1199,
      "clear": 1200,
      "fam": 1201,
      "ior": 1202,
      "Jo": 1203,
      "ages": 1204,
      "war": 1205,
      "care": 1206,
      "ues": 1207,
      "istr": 1208,
      "25": 1209,
      "ext": 1210,
      "ger": 1211,
      "son": 1212,
      "pot": 1213,
      "Nor": 1214,
      "during": 1215,
      "season": 1216,
      "American": 1217,
      "Cell": 1218,
      "help": 1219,
      "Ho": 1220,
      "since": 1221,
      "When": 1222,
      "rent": 1223,
      "ases": 1224,
      "cost": 1225,
      "0999": 1226,
      "unt": 1227,
      "contr": 1228,
      "feel": 1229,
      "told": 1230,
      "Ad": 1231,
      "net": 1232,
      "app": 1233,
      "partic": 1234,
      "rest": 1235,
      "change": 1236,
      "que": 1237,
      "things": 1238,
      "ster": 1239,
      "best": 1240,
      "ross": 1241,
      "import": 1242,
      "another": 1243,
      "ider": 1244,
      "ctor": 1245,
      "bit": 1246,
      "invest": 1247,
      "exam": 1248,
      "few": 1249,
      "research": 1250,
      "power": 1251,
      "expl": 1252,
      "jo": 1253,
      "Co": 1254,
      "won": 1255,
      "ants": 1256,
      "Stem": 1257,
      "tech": 1258,
      "next": 1259,
      "aff": 1260,
      "ship": 1261,
      "Pr": 1262,
      "might": 1263,
      "vent": 1264,
      "prof": 1265,
      ");": 1266,
      "lim": 1267,
      "tion": 1268,
      "ait": 1269,
      "ft": 1270,
      "something": 1271,
      "ploy": 1272,
      "follow": 1273,
      "great": 1274,
      "47": 1275,
      "60": 1276,
      "ets": 1277,
      "Europe": 1278,
      "second": 1279,
      "contro": 1280,
      "At": 1281,
      "Sh": 1282,
      "What": 1283,
      "each": 1284,
      "pass": 1285,
      "000000": 1286,
      "cording": 1287,
      "ST": 1288,
      "lock": 1289,
      "build": 1290,
      "ature": 1291,
      "ably": 1292,
      "oper": 1293,
      "including": 1294,
      "cy": 1295,
      "million": 1296,
      "proble": 1297,
      "Chr": 1298,
      "ready": 1299,
      "Br": 1300,
      "ling": 1301,
      "ideo": 1302,
      "ability": 1303,
      "small": 1304,
      "child": 1305,
      "ution": 1306,
      "Ro": 1307,
      "men": 1308,
      "sk": 1309,
      "ends": 1310,
      "prom": 1311,
      "company": 1312,
      "hard": 1313,
      "por": 1314,
      "ude": 1315,
      "eral": 1316,
      "hoto": 1317,
      "pat": 1318,
      "Can": 1319,
      "ug": 1320,
      "reason": 1321,
      "commun": 1322,
      "far": 1323,
      "action": 1324,
      "Team": 1325,
      "ices": 1326,
      "fil": 1327,
      "job": 1328,
      "vious": 1329,
      "win": 1330,
      "writ": 1331,
      "stit": 1332,
      "never": 1333,
      "group": 1334,
      "conom": 1335,
      "seem": 1336,
      "police": 1337,
      "little": 1338,
      "IS": 1339,
      "Pro": 1340,
      "She": 1341,
      "ele": 1342,
      "ness": 1343,
      "ired": 1344,
      "large": 1345,
      "school": 1346,
      "ont": 1347,
      "better": 1348,
      "23": 1349,
      "claim": 1350,
      "Cl": 1351,
      "wr": 1352,
      "body": 1353,
      "40": 1354,
      "four": 1355,
      "nor": 1356,
      "var": 1357,
      "Res": 1358,
      "cell": 1359,
      "sit": 1360,
      "allow": 1361,
      "level": 1362,
      "ency": 1363,
      "ork": 1364,
      "ished": 1365,
      "complex": 1366,
      "Dr": 1367,
      "hum": 1368,
      "move": 1369,
      "ately": 1370,
      "home": 1371,
      "gram": 1372,
      "case": 1373,
      "post": 1374,
      "27": 1375,
      "imes": 1376,
      "sum": 1377,
      "Med": 1378,
      "pul": 1379,
      "iven": 1380,
      "came": 1381,
      "sol": 1382,
      "talk": 1383,
      "spec": 1384,
      "Ob": 1385,
      "ibut": 1386,
      "ali": 1387,
      "process": 1388,
      "class": 1389,
      "United": 1390,
      "Col": 1391,
      "key": 1392,
      "ference": 1393,
      "interest": 1394,
      "oney": 1395,
      "didn": 1396,
      "product": 1397,
      "dom": 1398,
      "ital": 1399,
      "di": 1400,
      "Mar": 1401,
      "bers": 1402,
      "night": 1403,
      "fri": 1404,
      "cover": 1405,
      "sug": 1406,
      "ever": 1407,
      "without": 1408,
      "thor": 1409,
      "chang": 1410,
      "keep": 1411,
      "important": 1412,
      "idence": 1413,
      "jor": 1414,
      "inal": 1415,
      "ute": 1416,
      "hold": 1417,
      "recent": 1418,
      "ata": 1419,
      "ama": 1420,
      "expect": 1421,
      "ustr": 1422,
      "non": 1423,
      "tell": 1424,
      "doesn": 1425,
      "gy": 1426,
      "adv": 1427,
      "camp": 1428,
      "uck": 1429,
      "left": 1430,
      "sever": 1431,
      "28": 1432,
      "bal": 1433,
      "based": 1434,
      "past": 1435,
      "enter": 1436,
      "resident": 1437,
      "ended": 1438,
      "ime": 1439,
      "To": 1440,
      "ina": 1441,
      "remain": 1442,
      "women": 1443,
      "often": 1444,
      "number": 1445,
      "ending": 1446,
      "country": 1447,
      "acy": 1448,
      "sco": 1449,
      "iness": 1450,
      "conserv": 1451,
      "May": 1452,
      "oth": 1453,
      "bro": 1454,
      "bus": 1455,
      "organ": 1456,
      "program": 1457,
      "econom": 1458,
      "pur": 1459,
      "story": 1460,
      "current": 1461,
      "ield": 1462,
      "water": 1463,
      "ided": 1464,
      "fort": 1465,
      "likely": 1466,
      "21": 1467,
      "ones": 1468,
      "Ger": 1469,
      "money": 1470,
      "near": 1471,
      "possible": 1472,
      "least": 1473,
      "comes": 1474,
      "appro": 1475,
      "26": 1476,
      "One": 1477,
      "qual": 1478,
      "ensive": 1479,
      "Bl": 1480,
      "full": 1481,
      "market": 1482,
      "Pl": 1483,
      "hist": 1484,
      "employ": 1485,
      "enough": 1486,
      "major": 1487,
      "46": 1488,
      "fac": 1489,
      "aring": 1490,
      "dep": 1491,
      "contain": 1492,
      "37": 1493,
      "always": 1494,
      "news": 1495,
      "Gr": 1496,
      "argu": 1497,
      "points": 1498,
      "consider": 1499,
      "coming": 1500,
      "Rep": 1501,
      "hy": 1502,
      "ged": 1503,
      "rece": 1504,
      "ister": 1505,
      "However": 1506,
      "gin": 1507,
      "ord": 1508,
      "outh": 1509,
      "called": 1510,
      "Mr": 1511,
      "Ste": 1512,
      "eas": 1513,
      "sci": 1514,
      "whe": 1515,
      "posed": 1516,
      "attack": 1517,
      "formation": 1518,
      "45": 1519,
      "Or": 1520,
      "hn": 1521,
      "og": 1522,
      "ised": 1523,
      "why": 1524,
      "continu": 1525,
      "away": 1526,
      "face": 1527,
      "ned": 1528,
      "health": 1529,
      "une": 1530,
      "plic": 1531,
      "president": 1532,
      "happen": 1533,
      "develop": 1534,
      "Canad": 1535,
      "kind": 1536,
      "Mc": 1537,
      "Mon": 1538,
      "free": 1539,
      "gun": 1540,
      "oot": 1541,
      "tt": 1542,
      "yn": 1543,
      "Christ": 1544,
      "199": 1545,
      "ather": 1546,
      "ying": 1547,
      "deal": 1548,
      "ived": 1549,
      "Inter": 1550,
      "Brit": 1551,
      "polic": 1552,
      "known": 1553,
      "iversity": 1554,
      "Af": 1555,
      "ians": 1556,
      "tax": 1557,
      "alk": 1558,
      "und": 1559,
      "question": 1560,
      "experi": 1561,
      "35": 1562,
      "York": 1563,
      "ides": 1564,
      "Car": 1565,
      "unch": 1566,
      "ified": 1567,
      "until": 1568,
      "80": 1569,
      "West": 1570,
      "cu": 1571,
      "ric": 1572,
      "imum": 1573,
      "mocr": 1574,
      "project": 1575,
      "working": 1576,
      "ional": 1577,
      "ago": 1578,
      "ball": 1579,
      "met": 1580,
      "sex": 1581,
      "ards": 1582,
      "asked": 1583,
      "wit": 1584,
      "atur": 1585,
      "STL": 1586,
      "grow": 1587,
      "watch": 1588,
      "ons": 1589,
      "John": 1590,
      ".,": 1591,
      "43": 1592,
      "Sy": 1593,
      "mean": 1594,
      "crit": 1595,
      "typ": 1596,
      "hal": 1597,
      "later": 1598,
      "making": 1599,
      "stre": 1600,
      "already": 1601,
      "ising": 1602,
      "ird": 1603,
      "charac": 1604,
      "AR": 1605,
      "name": 1606,
      "sour": 1607,
      "icle": 1608,
      "aster": 1609,
      "family": 1610,
      "must": 1611,
      "ref": 1612,
      "imm": 1613,
      "iving": 1614,
      "Eng": 1615,
      "Jap": 1616,
      "fic": 1617,
      "treat": 1618,
      "\u0000\u0000\u0000": 1619,
      "suc": 1620,
      "prote": 1621,
      "Japan": 1622,
      "type": 1623,
      "certain": 1624,
      "stead": 1625,
      "aver": 1626,
      "onment": 1627,
      "ision": 1628,
      "icine": 1629,
      "force": 1630,
      "political": 1631,
      "mit": 1632,
      "uc": 1633,
      "took": 1634,
      "doing": 1635,
      "Ind": 1636,
      "example": 1637,
      "32": 1638,
      "ilar": 1639,
      "suggest": 1640,
      "aid": 1641,
      "city": 1642,
      "cted": 1643,
      "months": 1644,
      "several": 1645,
      "data": 1646,
      "young": 1647,
      "actually": 1648,
      "ials": 1649,
      "Ex": 1650,
      "mind": 1651,
      "days": 1652,
      "human": 1653,
      "65": 1654,
      "Pol": 1655,
      "fight": 1656,
      "ges": 1657,
      "become": 1658,
      "aged": 1659,
      "ney": 1660,
      "earch": 1661,
      "event": 1662,
      "ization": 1663,
      "All": 1664,
      "uture": 1665,
      "grap": 1666,
      "tar": 1667,
      "tern": 1668,
      "70": 1669,
      "Den": 1670,
      "cuss": 1671,
      "fire": 1672,
      "mid": 1673,
      "fully": 1674,
      "bur": 1675,
      "den": 1676,
      "vi": 1677,
      "across": 1678,
      "plan": 1679,
      "means": 1680,
      "aft": 1681,
      "ief": 1682,
      "member": 1683,
      "Ac": 1684,
      "ially": 1685,
      "These": 1686,
      "curity": 1687,
      "trying": 1688,
      "higher": 1689,
      ".\u0000\u0000\u0000\u0000\u0000\u0000\u0000\u0000\u0000\u0000\u0000\u0000\u0000\u0000\u0000\u0000\u0000\u0000\u0000\u0000\u0000\u0000\u0000\u0000\u0000\u0000\u0000\u0000\u0000\u0000\u0000\u0000\u0000\u0000\u0000\u0000\u0000\u0000\u0000\u0000\u0000\u0000\u0000\u0000\u0000\u0000\u0000\u0000\u0000\u0000\u0000\u0000\u0000\u0000\u0000\u0000\u0000\u0000\u0000\u0000\u0000\u0000\u0000\u0000\u0000\u0000\u0000\u0000\u0000\u0000\u0000\u0000\u0000\u0000\u0000\u0000\u0000\u0000\u0000\u0000\u0000\u0000\u0000\u0000\u0000\u0000\u0000\u0000\u0000\u0000\u0000\u0000\u0000\u0000\u0000\u0000\u0000\u0000\u0000\u0000\u0000\u0000\u0000\u0000\u0000\u0000\u0000\u0000\u0000\u0000\u0000\u0000\u0000\u0000\u0000\u0000\u0000\u0000\u0000\u0000\u0000\u0000\u0000\u0000\u0000\u0000\u0000\u0000\u0000\u0000\u0000\u0000\u0000\u0000\u0000\u0000\u0000\u0000\u0000\u0000\u0000\u0000\u0000\u0000\u0000\u0000\u0000\u0000\u0000\u0000\u0000\u0000\u0000\u0000\u0000\u0000\u0000\u0000\u0000\u0000\u0000\u0000\u0000\u0000\u0000\u0000\u0000\u0000\u0000\u0000\u0000\u0000\u0000\u0000\u0000\u0000\u0000\u0000\u0000\u0000\u0000\u0000\u0000\u0000\u0000\u0000\u0000\u0000\u0000\u0000\u0000\u0000\u0000\u0000\u0000\u0000\u0000\u0000\u0000\u0000\u0000\u0000\u0000\u0000\u0000\u0000\u0000\u0000\u0000\u0000\u0000\u0000\u0000\u0000\u0000\u0000\u0000\u0000\u0000\u0000\u0000\u0000\u0000\u0000\u0000\u0000\u0000\u0000\u0000\u0000\u0000\u0000\u0000\u0000\u0000\u0000\u0000\u0000\u0000\u0000\u0000\u0000\u0000\u0000\u0000\u0000\u0000\u0000\u0000\u0000\u0000\u0000\u0000\u0000\u0000\u0000": 1690,
      "done": 1691,
      "alloc": 1692,
      "ought": 1693,
      "evidence": 1694,
      "count": 1695,
      "specific": 1696,
      "ben": 1697,
      "page": 1698,
      "sof": 1699,
      "strong": 1700,
      "Research": 1701,
      "Go": 1702,
      "gether": 1703,
      "investig": 1704,
      "Sp": 1705,
      "elect": 1706,
      "ike": 1707,
      "front": 1708,
      "course": 1709,
      "vironment": 1710,
      "With": 1711,
      "fed": 1712,
      "late": 1713,
      "having": 1714,
      "early": 1715,
      "pract": 1716,
      "complexity": 1717,
      "seen": 1718,
      "author": 1719,
      "times": 1720,
      "State": 1721,
      "fund": 1722,
      "whether": 1723,
      "100": 1724,
      "five": 1725,
      "uary": 1726,
      "once": 1727,
      "atives": 1728,
      "ley": 1729,
      "white": 1730,
      "ither": 1731,
      "ground": 1732,
      "itional": 1733,
      "profess": 1734,
      "Min": 1735,
      "eve": 1736,
      "ru": 1737,
      "exp": 1738,
      "Red": 1739,
      "problem": 1740,
      "business": 1741,
      "Republic": 1742,
      "az": 1743,
      "aign": 1744,
      "give": 1745,
      "games": 1746,
      "sen": 1747,
      "anal": 1748,
      "players": 1749,
      "media": 1750,
      "Soci": 1751,
      "among": 1752,
      "meas": 1753,
      "Some": 1754,
      "edit": 1755,
      "studies": 1756,
      "makes": 1757,
      "infl": 1758,
      "position": 1759,
      "related": 1760,
      "particular": 1761,
      "bas": 1762,
      "fig": 1763,
      "future": 1764,
      "mor": 1765,
      "ats": 1766,
      "ators": 1767,
      "former": 1768,
      "getting": 1769,
      "2019": 1770,
      "descr": 1771,
      "woman": 1772,
      "single": 1773,
      "29": 1774,
      "Bel": 1775,
      "EA": 1776,
      "Just": 1777,
      "model": 1778,
      "urther": 1779,
      "36": 1780,
      "information": 1781,
      "along": 1782,
      "aper": 1783,
      "understand": 1784,
      "study": 1785,
      "foc": 1786,
      "mil": 1787,
      "went": 1788,
      "stop": 1789,
      "together": 1790,
      "omet": 1791,
      "uses": 1792,
      "prob": 1793,
      "States": 1794,
      "potent": 1795,
      "control": 1796,
      "After": 1797,
      "fel": 1798,
      "believe": 1799,
      "55": 1800,
      "bor": 1801,
      "fail": 1802,
      "ient": 1803,
      "mber": 1804,
      "sent": 1805,
      "spo": 1806,
      "ond": 1807,
      "within": 1808,
      "avail": 1809,
      "room": 1810,
      "ague": 1811,
      "someone": 1812,
      "results": 1813,
      "hour": 1814,
      "kill": 1815,
      "Stud": 1816,
      "children": 1817,
      "campaign": 1818,
      "President": 1819,
      "isn": 1820,
      "load": 1821,
      "exist": 1822,
      "reported": 1823,
      "fav": 1824,
      "mom": 1825,
      "itive": 1826,
      "perfor": 1827,
      "pret": 1828,
      "Ed": 1829,
      "ove": 1830,
      "almost": 1831,
      "area": 1832,
      "defin": 1833,
      "quick": 1834,
      "48": 1835,
      "Don": 1836,
      "yet": 1837,
      "invol": 1838,
      "ands": 1839,
      "discuss": 1840,
      "saying": 1841,
      "looking": 1842,
      "explain": 1843,
      "Coun": 1844,
      "site": 1845,
      "environment": 1846,
      "orig": 1847,
      "itions": 1848,
      "text": 1849,
      "plac": 1850,
      "medi": 1851,
      "ined": 1852,
      "ales": 1853,
      "tra": 1854,
      "activ": 1855,
      "idea": 1856,
      "Mic": 1857,
      "ply": 1858,
      "reach": 1859,
      "today": 1860,
      "compan": 1861,
      "While": 1862,
      "function": 1863,
      "ecut": 1864,
      "fall": 1865,
      "given": 1866,
      "ij": 1867,
      "nes": 1868,
      "ison": 1869,
      "thought": 1870,
      "close": 1871,
      "signific": 1872,
      "struct": 1873,
      "direct": 1874,
      "Medicine": 1875,
      "Man": 1876,
      "Russ": 1877,
      "publ": 1878,
      "tow": 1879,
      "love": 1880,
      "const": 1881,
      "deb": 1882,
      "anything": 1883,
      "announ": 1884,
      "effects": 1885,
      "BC": 1886,
      "Dav": 1887,
      "His": 1888,
      "aul": 1889,
      "gress": 1890,
      "sl": 1891,
      "offer": 1892,
      "ured": 1893,
      "match": 1894,
      "mission": 1895,
      "break": 1896,
      "har": 1897,
      "sound": 1898,
      "liber": 1899,
      "black": 1900,
      "University": 1901,
      "started": 1902,
      "similar": 1903,
      "British": 1904,
      "half": 1905,
      "75": 1906,
      "dro": 1907,
      "uation": 1908,
      "atic": 1909,
      "step": 1910,
      "iter": 1911,
      "social": 1912,
      "North": 1913,
      "techno": 1914,
      "billion": 1915,
      "ris": 1916,
      "rad": 1917,
      "super": 1918,
      "previous": 1919,
      "minimum": 1920,
      "local": 1921,
      "Cong": 1922,
      "ech": 1923,
      "mar": 1924,
      "photo": 1925,
      "reen": 1926,
      "entire": 1927,
      "auto": 1928,
      "augh": 1929,
      "America": 1930,
      "generative": 1931,
      "My": 1932,
      "Wor": 1933,
      "ror": 1934,
      "ories": 1935,
      "according": 1936,
      "ury": 1937,
      "legal": 1938,
      "community": 1939,
      "character": 1940,
      "Congress": 1941,
      "Ber": 1942,
      "cult": 1943,
      "scr": 1944,
      "size": 1945,
      "agree": 1946,
      "aken": 1947,
      "2016": 1948,
      "special": 1949,
      "response": 1950,
      "AS": 1951,
      "ER": 1952,
      "relation": 1953,
      "Democr": 1954,
      "issues": 1955,
      "Society": 1956,
      "rac": 1957,
      "ines": 1958,
      "else": 1959,
      "rather": 1960,
      "Fl": 1961,
      "block": 1962,
      "ering": 1963,
      "ivid": 1964,
      "ails": 1965,
      "Im": 1966,
      "cle": 1967,
      "return": 1968,
      "train": 1969,
      "ustom": 1970,
      "ustry": 1971,
      "38": 1972,
      "Now": 1973,
      "date": 1974,
      "dest": 1975,
      "priv": 1976,
      "logical": 1977,
      "memory": 1978,
      "respons": 1979,
      "90": 1980,
      "ai": 1981,
      "house": 1982,
      "wide": 1983,
      "wage": 1984,
      "record": 1985,
      "acc": 1986,
      "available": 1987,
      "bar": 1988,
      "sort": 1989,
      "redu": 1990,
      "role": 1991,
      "concer": 1992,
      "cially": 1993,
      "2014": 1994,
      "Regenerative": 1995,
      "bad": 1996,
      "ey": 1997,
      "illi": 1998,
      "death": 1999,
      "tries": 2000,
      "added": 2001,
      "significant": 2002,
      "espe": 2003,
      "short": 2004,
      "space": 2005,
      "plement": 2006,
      "...": 2007,
      "Cali": 2008,
      "Su": 2009,
      "cit": 2010,
      "field": 2011,
      "mult": 2012,
      "pen": 2013,
      "van": 2014,
      "third": 2015,
      "partment": 2016,
      "Clint": 2017,
      "vari": 2018,
      "Bar": 2019,
      "Mo": 2020,
      "either": 2021,
      "ls": 2022,
      "nal": 2023,
      "pan": 2024,
      "inst": 2025,
      "ination": 2026,
      "abor": 2027,
      "player": 2028,
      "include": 2029,
      "members": 2030,
      "stein": 2031,
      "dist": 2032,
      "hind": 2033,
      "round": 2034,
      "taking": 2035,
      "init": 2036,
      "forn": 2037,
      "\u0000\u0000\u0000\u0000\u0000\u0000\u0000\u0000\u0000\u0000\u0000\u0000\u0000\u0000\u0000\u0000\u0000\u0000\u0000\u0000\u0000\u0000\u0000\u0000\u0000\u0000\u0000\u0000\u0000\u0000\u0000\u0000\u0000\u0000\u0000\u0000\u0000\u0000\u0000\u0000\u0000\u0000\u0000\u0000\u0000\u0000\u0000\u0000\u0000\u0000\u0000\u0000\u0000\u0000\u0000\u0000\u0000\u0000\u0000\u0000\u0000\u0000\u0000\u0000\u0000\u0000\u0000\u0000\u0000\u0000\u0000\u0000\u0000\u0000\u0000\u0000\u0000\u0000\u0000\u0000\u0000\u0000\u0000\u0000\u0000\u0000\u0000\u0000\u0000\u0000\u0000\u0000\u0000\u0000\u0000\u0000\u0000\u0000\u0000\u0000\u0000\u0000\u0000\u0000\u0000\u0000\u0000\u0000\u0000\u0000\u0000\u0000\u0000\u0000\u0000\u0000\u0000\u0000\u0000\u0000\u0000\u0000\u0000\u0000\u0000\u0000\u0000\u0000\u0000\u0000\u0000\u0000\u0000\u0000\u0000\u0000\u0000\u0000\u0000\u0000\u0000\u0000\u0000\u0000\u0000\u0000\u0000\u0000\u0000\u0000\u0000\u0000\u0000\u0000\u0000\u0000\u0000\u0000\u0000\u0000\u0000\u0000\u0000\u0000\u0000\u0000\u0000\u0000\u0000\u0000\u0000\u0000\u0000\u0000\u0000\u0000\u0000\u0000\u0000\u0000\u0000\u0000\u0000\u0000\u0000\u0000\u0000\u0000\u0000\u0000\u0000\u0000": 2038,
      "2013": 2039,
      "host": 2040,
      "Americans": 2041,
      "Californ": 2042,
      "ES": 2043,
      "comb": 2044,
      "wasn": 2045,
      "teams": 2046,
      "general": 2047,
      "others": 2048,
      "depend": 2049,
      "success": 2050,
      "federal": 2051,
      "companies": 2052,
      "cal": 2053,
      "fix": 2054,
      "mus": 2055,
      "reme": 2056,
      "execut": 2057,
      "gets": 2058,
      "wanted": 2059,
      "domain": 2060,
      "ony": 2061,
      "amoun": 2062,
      "selves": 2063,
      "needs": 2064,
      "released": 2065,
      "European": 2066,
      "town": 2067,
      "cou": 2068,
      "cing": 2069,
      "ging": 2070,
      "mag": 2071,
      "uff": 2072,
      "educ": 2073,
      "arter": 2074,
      "imate": 2075,
      "works": 2076,
      "video": 2077,
      "review": 2078,
      "security": 2079,
      "ams": 2080,
      "due": 2081,
      "draw": 2082,
      "Obama": 2083,
      "Clinton": 2084,
      "66": 2085,
      "IQ": 2086,
      "gain": 2087,
      "pick": 2088,
      "ret": 2089,
      "igr": 2090,
      "pose": 2091,
      "individ": 2092,
      "version": 2093,
      "probably": 2094,
      ".)": 2095,
      "Gen": 2096,
      "House": 2097,
      "bed": 2098,
      "flo": 2099,
      "stat": 2100,
      "ington": 2101,
      "conference": 2102,
      "board": 2103,
      "spect": 2104,
      "World": 2105,
      "UK": 2106,
      "tor": 2107,
      "begin": 2108,
      "rote": 2109,
      "service": 2110,
      "following": 2111,
      "City": 2112,
      "ae": 2113,
      "lam": 2114,
      "reed": 2115,
      "ids": 2116,
      "meet": 2117,
      "party": 2118,
      "content": 2119,
      "Jan": 2120,
      "equ": 2121,
      "hom": 2122,
      "ock": 2123,
      "web": 2124,
      "saw": 2125,
      "industry": 2126,
      "building": 2127,
      "34": 2128,
      "Ser": 2129,
      "cop": 2130,
      "ming": 2131,
      "taken": 2132,
      "iday": 2133,
      "diffic": 2134,
      "phys": 2135,
      "How": 2136,
      "Ph": 2137,
      "SC": 2138,
      "Wild": 2139,
      "ban": 2140,
      "dou": 2141,
      "gn": 2142,
      "hit": 2143,
      "mis": 2144,
      "wrote": 2145,
      "represent": 2146,
      "attem": 2147,
      "toward": 2148,
      "below": 2149,
      "ctions": 2150,
      "dem": 2151,
      "trad": 2152,
      "track": 2153,
      "ibility": 2154,
      "everything": 2155,
      "development": 2156,
      "Me": 2157,
      "dam": 2158,
      "further": 2159,
      "behind": 2160,
      "ively": 2161,
      "cret": 2162,
      "matter": 2163,
      "complete": 2164,
      "friend": 2165,
      "policy": 2166,
      "experience": 2167,
      "39": 2168,
      "Ge": 2169,
      "decl": 2170,
      "2015": 2171,
      "playing": 2172,
      "simply": 2173,
      "groups": 2174,
      "increase": 2175,
      "result": 2176,
      "57": 2177,
      "By": 2178,
      "Cy": 2179,
      "glo": 2180,
      "link": 2181,
      "asing": 2182,
      "igence": 2183,
      "user": 2184,
      "weight": 2185,
      "true": 2186,
      "rael": 2187,
      "favor": 2188,
      "individual": 2189,
      "Des": 2190,
      "Qu": 2191,
      "heart": 2192,
      "supp": 2193,
      "conf": 2194,
      "ender": 2195,
      "ival": 2196,
      "grad": 2197,
      "China": 2198,
      "Apr": 2199,
      "ks": 2200,
      "instead": 2201,
      "item": 2202,
      "dev": 2203,
      "urch": 2204,
      "Trans": 2205,
      "viol": 2206,
      "performan": 2207,
      "67": 2208,
      "Do": 2209,
      "ium": 2210,
      "ament": 2211,
      "countries": 2212,
      "provide": 2213,
      "anks": 2214,
      "election": 2215,
      "Canada": 2216,
      "_t": 2217,
      "div": 2218,
      "vic": 2219,
      "threat": 2220,
      "ances": 2221,
      "imp": 2222,
      "ager": 2223,
      "series": 2224,
      "anger": 2225,
      "scient": 2226,
      "graph": 2227,
      "pretty": 2228,
      "Mus": 2229,
      "Not": 2230,
      "South": 2231,
      "].": 2232,
      "gl": 2233,
      "usu": 2234,
      "implement": 2235,
      "whole": 2236,
      "2012": 2237,
      "hope": 2238,
      "rights": 2239,
      "April": 2240,
      "Bo": 2241,
      "Ju": 2242,
      "Paul": 2243,
      "ners": 2244,
      "six": 2245,
      "inc": 2246,
      "ently": 2247,
      "live": 2248,
      "urs": 2249,
      "shot": 2250,
      "interview": 2251,
      "commit": 2252,
      "Israel": 2253,
      "Kore": 2254,
      "TV": 2255,
      "fa": 2256,
      "iber": 2257,
      "ler": 2258,
      "ns": 2259,
      "lies": 2260,
      "lower": 2261,
      "changes": 2262,
      "56": 2263,
      "89": 2264,
      "Lon": 2265,
      "ON": 2266,
      "cas": 2267,
      "dle": 2268,
      "states": 2269,
      "vert": 2270,
      "outside": 2271,
      "ules": 2272,
      "prim": 2273,
      "describ": 2274,
      "49": 2275,
      "AT": 2276,
      "En": 2277,
      "aj": 2278,
      "band": 2279,
      "hip": 2280,
      "ron": 2281,
      "sw": 2282,
      "access": 2283,
      "ford": 2284,
      "ural": 2285,
      "iller": 2286,
      "intell": 2287,
      "played": 2288,
      "ministr": 2289,
      "speech": 2290,
      "value": 2291,
      "benef": 2292,
      "cir": 2293,
      "custom": 2294,
      "sty": 2295,
      "lier": 2296,
      "libr": 2297,
      "pop": 2298,
      "compet": 2299,
      "strate": 2300,
      "achine": 2301,
      "however": 2302,
      "wrong": 2303,
      "history": 2304,
      "ometimes": 2305,
      "87": 2306,
      "March": 2307,
      "online": 2308,
      "road": 2309,
      "prove": 2310,
      "article": 2311,
      "crim": 2312,
      "expected": 2313,
      "Sci": 2314,
      "War": 2315,
      "roll": 2316,
      "ched": 2317,
      "chall": 2318,
      "demon": 2319,
      "word": 2320,
      "object": 2321,
      "relig": 2322,
      "charges": 2323,
      "colle": 2324,
      "seems": 2325,
      "source": 2326,
      "average": 2327,
      "difficult": 2328,
      "\".": 2329,
      "31": 2330,
      "nation": 2331,
      "nothing": 2332,
      "popul": 2333,
      "proper": 2334,
      "actions": 2335,
      "words": 2336,
      "ferences": 2337,
      "office": 2338,
      "2011": 2339,
      "bring": 2340,
      "sociation": 2341,
      "Syr": 2342,
      "bum": 2343,
      "cases": 2344,
      "da": 2345,
      "distr": 2346,
      "kes": 2347,
      "accept": 2348,
      "forward": 2349,
      "conne": 2350,
      "ivil": 2351,
      "box": 2352,
      "string": 2353,
      "scen": 2354,
      "contribut": 2355,
      "especially": 2356,
      "performance": 2357,
      "EU": 2358,
      "Photo": 2359,
      "ping": 2360,
      "pite": 2361,
      "ify": 2362,
      "print": 2363,
      "tware": 2364,
      "students": 2365,
      "launch": 2366,
      "contract": 2367,
      "London": 2368,
      "BAR": 2369,
      "note": 2370,
      "quite": 2371,
      "questions": 2372,
      "Har": 2373,
      "Net": 2374,
      "Sep": 2375,
      "cand": 2376,
      "push": 2377,
      "ald": 2378,
      "total": 2379,
      "dog": 2380,
      "phone": 2381,
      "USA": 2382,
      "cells": 2383,
      "approach": 2384,
      "California": 2385,
      "Ear": 2386,
      "Hait": 2387,
      "Pe": 2388,
      "foot": 2389,
      "race": 2390,
      "ention": 2391,
      "lied": 2392,
      "tests": 2393,
      "friends": 2394,
      "International": 2395,
      "86": 2396,
      "cast": 2397,
      "above": 2398,
      "reading": 2399,
      "require": 2400,
      "particip": 2401,
      "milit": 2402,
      "Austr": 2403,
      "FL": 2404,
      "Sch": 2405,
      "Tues": 2406,
      "ded": 2407,
      "\u0000\u0000\u0000\u0000\u0000\u0000\u0000\u0000\u0000\u0000\u0000\u0000": 2408,
      "rew": 2409,
      "west": 2410,
      "differences": 2411,
      "statement": 2412,
      "court": 2413,
      "published": 2414,
      ">/": 2415,
      "Wash": 2416,
      "sense": 2417,
      "uge": 2418,
      "walk": 2419,
      "thod": 2420,
      "term": 2421,
      "necess": 2422,
      "tru": 2423,
      "worth": 2424,
      "cling": 2425,
      "release": 2426,
      "employment": 2427,
      "analys": 2428,
      "technology": 2429,
      "Here": 2430,
      "ires": 2431,
      "ran": 2432,
      "stay": 2433,
      "staff": 2434,
      "utes": 2435,
      "docu": 2436,
      "jobs": 2437,
      "Japanese": 2438,
      "Tuesday": 2439,
      "33": 2440,
      "Gu": 2441,
      "Her": 2442,
      "National": 2443,
      "lan": 2444,
      "mess": 2445,
      "pack": 2446,
      "ral": 2447,
      "itch": 2448,
      "amed": 2449,
      "weap": 2450,
      "cred": 2451,
      "spir": 2452,
      "themselves": 2453,
      "0150": 2454,
      "check": 2455,
      "voters": 2456,
      "moment": 2457,
      "quickly": 2458,
      "David": 2459,
      "ients": 2460,
      "mal": 2461,
      "ww": 2462,
      "ills": 2463,
      "needed": 2464,
      "quality": 2465,
      "amount": 2466,
      "AM": 2467,
      "Off": 2468,
      "bi": 2469,
      "lack": 2470,
      "sell": 2471,
      "began": 2472,
      "haps": 2473,
      "respect": 2474,
      "final": 2475,
      "continue": 2476,
      "personal": 2477,
      "software": 2478,
      "64": 2479,
      "Center": 2480,
      "Every": 2481,
      "Green": 2482,
      "fem": 2483,
      "paren": 2484,
      "ilt": 2485,
      "production": 2486,
      "Islam": 2487,
      "deter": 2488,
      "According": 2489,
      "potential": 2490,
      "Part": 2491,
      "ffer": 2492,
      "mass": 2493,
      "ring": 2494,
      "thous": 2495,
      "held": 2496,
      "thern": 2497,
      "code": 2498,
      "cogn": 2499,
      "create": 2500,
      "himself": 2501,
      "everyone": 2502,
      "standard": 2503,
      "intelligence": 2504,
      "Tissue": 2505,
      "bul": 2506,
      "atures": 2507,
      "itself": 2508,
      "ades": 2509,
      "tee": 2510,
      "tegr": 2511,
      "except": 2512,
      "portun": 2513,
      "craft": 2514,
      "News": 2515,
      "longer": 2516,
      "shows": 2517,
      "Friday": 2518,
      "EASTL": 2519,
      "hours": 2520,
      "77": 2521,
      "Fe": 2522,
      "OT": 2523,
      "civil": 2524,
      "lish": 2525,
      "inj": 2526,
      "attr": 2527,
      "oud": 2528,
      "arrest": 2529,
      "common": 2530,
      "exact": 2531,
      "coach": 2532,
      "iple": 2533,
      "difference": 2534,
      "situation": 2535,
      "Washington": 2536,
      "AN": 2537,
      "Am": 2538,
      "Ma": 2539,
      "Oc": 2540,
      "lay": 2541,
      "pair": 2542,
      "reli": 2543,
      "iment": 2544,
      "aint": 2545,
      "quarter": 2546,
      "regard": 2547,
      "weeks": 2548,
      "candid": 2549,
      "gg": 2550,
      "rup": 2551,
      "tit": 2552,
      "bey": 2553,
      "aging": 2554,
      "answer": 2555,
      "appear": 2556,
      "influ": 2557,
      "relationship": 2558,
      "attempt": 2559,
      "Fir": 2560,
      "King": 2561,
      "San": 2562,
      "base": 2563,
      "cup": 2564,
      "hol": 2565,
      "ta": 2566,
      "tre": 2567,
      "condu": 2568,
      "terms": 2569,
      "express": 2570,
      "soon": 2571,
      "safe": 2572,
      "2010": 2573,
      "believ": 2574,
      "Germany": 2575,
      "original": 2576,
      "IN": 2577,
      "fan": 2578,
      "hot": 2579,
      "ny": 2580,
      "lif": 2581,
      "iff": 2582,
      "Thom": 2583,
      "decision": 2584,
      "economic": 2585,
      "measure": 2586,
      "41": 2587,
      "AP": 2588,
      "More": 2589,
      "Mark": 2590,
      "map": 2591,
      "range": 2592,
      "wait": 2593,
      "ume": 2594,
      "price": 2595,
      "cannot": 2596,
      "worked": 2597,
      "avo": 2598,
      "address": 2599,
      "simple": 2600,
      "vision": 2601,
      "lines": 2602,
      "German": 2603,
      "involved": 2604,
      "Cycling": 2605,
      "Dis": 2606,
      "Face": 2607,
      "ba": 2608,
      "ec": 2609,
      "fair": 2610,
      "ham": 2611,
      "administr": 2612,
      "method": 2613,
      "estim": 2614,
      "White": 2615,
      "additional": 2616,
      "officer": 2617,
      "running": 2618,
      "happened": 2619,
      "environmental": 2620,
      "42": 2621,
      "68": 2622,
      "Willi": 2623,
      "gor": 2624,
      "sha": 2625,
      "wid": 2626,
      "stren": 2627,
      "arily": 2628,
      "ites": 2629,
      "Instit": 2630,
      "ification": 2631,
      "leaders": 2632,
      "engine": 2633,
      "Black": 2634,
      "announced": 2635,
      "Ab": 2636,
      "Our": 2637,
      "Sco": 2638,
      "Twit": 2639,
      "wind": 2640,
      "ana": 2641,
      "heard": 2642,
      "heav": 2643,
      "living": 2644,
      "emer": 2645,
      "goal": 2646,
      "spital": 2647,
      "built": 2648,
      "Monday": 2649,
      "First": 2650,
      "OR": 2651,
      "Par": 2652,
      "Sun": 2653,
      "Times": 2654,
      "scre": 2655,
      "ube": 2656,
      "request": 2657,
      "sem": 2658,
      "lost": 2659,
      "progress": 2660,
      "ift": 2661,
      "opportun": 2662,
      "pri": 2663,
      "whose": 2664,
      "spent": 2665,
      "aily": 2666,
      "education": 2667,
      "January": 2668,
      "June": 2669,
      "Law": 2670,
      "Sen": 2671,
      "dict": 2672,
      "hop": 2673,
      "iod": 2674,
      "dead": 2675,
      "mention": 2676,
      "medical": 2677,
      "surpr": 2678,
      "turned": 2679,
      "film": 2680,
      "Twitter": 2681,
      "88": 2682,
      "?”": 2683,
      "Tyn": 2684,
      "bill": 2685,
      "food": 2686,
      "gas": 2687,
      "mp": 2688,
      "ener": 2689,
      "adem": 2690,
      "compl": 2691,
      "istic": 2692,
      "umb": 2693,
      "Why": 2694,
      "ledge": 2695,
      "virt": 2696,
      "streng": 2697,
      "63": 2698,
      "Post": 2699,
      "bud": 2700,
      "ique": 2701,
      "spot": 2702,
      "takes": 2703,
      "stuff": 2704,
      "ises": 2705,
      "bel": 2706,
      "vey": 2707,
      "applic": 2708,
      "share": 2709,
      "affect": 2710,
      "izing": 2711,
      "services": 2712,
      "topic": 2713,
      "director": 2714,
      "Facebook": 2715,
      "Even": 2716,
      "fill": 2717,
      "gir": 2718,
      "labor": 2719,
      "sometimes": 2720,
      "rodu": 2721,
      "loss": 2722,
      "ables": 2723,
      "moved": 2724,
      "ports": 2725,
      "aker": 2726,
      "tember": 2727,
      "buy": 2728,
      "collect": 2729,
      "products": 2730,
      "easy": 2731,
      "Cor": 2732,
      "Miller": 2733,
      "Per": 2734,
      "paper": 2735,
      "immedi": 2736,
      "cember": 2737,
      "deep": 2738,
      "emp": 2739,
      "anti": 2740,
      "created": 2741,
      "December": 2742,
      "officials": 2743,
      "September": 2744,
      "AC": 2745,
      "AG": 2746,
      "hor": 2747,
      "atory": 2748,
      "seek": 2749,
      "feed": 2750,
      "earlier": 2751,
      "overall": 2752,
      "recently": 2753,
      "global": 2754,
      "impact": 2755,
      "military": 2756,
      "79": 2757,
      "DC": 2758,
      "Sm": 2759,
      "fit": 2760,
      "ken": 2761,
      "slow": 2762,
      "onto": 2763,
      "aries": 2764,
      "tom": 2765,
      "lying": 2766,
      "ife": 2767,
      "email": 2768,
      "nearly": 2769,
      "training": 2770,
      "Muslim": 2771,
      "Wed": 2772,
      "Well": 2773,
      "pie": 2774,
      "uel": 2775,
      "album": 2776,
      "comment": 2777,
      "usive": 2778,
      "trave": 2779,
      "period": 2780,
      "comput": 2781,
      "forms": 2782,
      "ogle": 2783,
      "morning": 2784,
      "popular": 2785,
      "GO": 2786,
      "Of": 2787,
      "Sam": 2788,
      "htt": 2789,
      "machine": 2790,
      "ties": 2791,
      "ane": 2792,
      "alleg": 2793,
      "secut": 2794,
      "ili": 2795,
      "ilities": 2796,
      "ollar": 2797,
      "etic": 2798,
      "weet": 2799,
      "prior": 2800,
      "climate": 2801,
      "minutes": 2802,
      "matic": 2803,
      "occur": 2804,
      "inside": 2805,
      "techn": 2806,
      "51": 2807,
      "58": 2808,
      "59": 2809,
      "II": 2810,
      "LE": 2811,
      "Tur": 2812,
      "UN": 2813,
      "fo": 2814,
      "rate": 2815,
      "associ": 2816,
      "account": 2817,
      "usion": 2818,
      "goes": 2819,
      "parts": 2820,
      "dise": 2821,
      "attle": 2822,
      "mater": 2823,
      "career": 2824,
      "problems": 2825,
      "treatment": 2826,
      "iterator": 2827,
      "risk": 2828,
      "beyond": 2829,
      "\",": 2830,
      "09": 2831,
      "53": 2832,
      "Park": 2833,
      "fans": 2834,
      "sat": 2835,
      "via": 2836,
      "refer": 2837,
      "atter": 2838,
      "chan": 2839,
      "users": 2840,
      "agement": 2841,
      "oted": 2842,
      "subject": 2843,
      "officers": 2844,
      "extreme": 2845,
      "patients": 2846,
      "broad": 2847,
      "majority": 2848,
      "protect": 2849,
      "Republican": 2850,
      "Thomas": 2851,
      "Tynd": 2852,
      "52": 2853,
      "Air": 2854,
      "bio": 2855,
      "gap": 2856,
      "gave": 2857,
      "sold": 2858,
      "anch": 2859,
      "thes": 2860,
      "enn": 2861,
      "leave": 2862,
      "improve": 2863,
      "hael": 2864,
      "plat": 2865,
      "0147": 2866,
      "wouldn": 2867,
      "finan": 2868,
      "designed": 2869,
      "struction": 2870,
      "write": 2871,
      "received": 2872,
      "investigation": 2873,
      "nesday": 2874,
      "Network": 2875,
      "Haiti": 2876,
      "Wednesday": 2877,
      "Dan": 2878,
      "Most": 2879,
      "Pat": 2880,
      "Pet": 2881,
      "Str": 2882,
      "jour": 2883,
      "mir": 2884,
      "ri": 2885,
      "vil": 2886,
      "star": 2887,
      "ication": 2888,
      "obvious": 2889,
      "regul": 2890,
      "From": 2891,
      "currently": 2892,
      "Michael": 2893,
      "usually": 2894,
      "Tyndall": 2895,
      "Afr": 2896,
      "Lo": 2897,
      "dig": 2898,
      "recomm": 2899,
      "itor": 2900,
      "ico": 2901,
      "iding": 2902,
      "moder": 2903,
      "feature": 2904,
      "Thurs": 2905,
      "introdu": 2906,
      "serious": 2907,
      "contact": 2908,
      "hood": 2909,
      "corpor": 2910,
      "raq": 2911,
      "wants": 2912,
      "looks": 2913,
      "looked": 2914,
      "consist": 2915,
      "ordin": 2916,
      "types": 2917,
      "multiple": 2918,
      "music": 2919,
      "exactly": 2920,
      "78": 2921,
      "Iraq": 2922,
      "LA": 2923,
      "Rich": 2924,
      "cul": 2925,
      "dd": 2926,
      "sal": 2927,
      "reve": 2928,
      "std": 2929,
      "sequ": 2930,
      "olution": 2931,
      "propos": 2932,
      "explo": 2933,
      "bot": 2934,
      "ibly": 2935,
      "international": 2936,
      "pointed": 2937,
      "Department": 2938,
      "letter": 2939,
      "conservatives": 2940,
      "felt": 2941,
      "private": 2942,
      "described": 2943,
      "Science": 2944,
      "CH": 2945,
      "Sand": 2946,
      "bon": 2947,
      "jud": 2948,
      "natur": 2949,
      "ox": 2950,
      "erc": 2951,
      "enjo": 2952,
      "alone": 2953,
      "lex": 2954,
      "select": 2955,
      "separ": 2956,
      "lood": 2957,
      "areas": 2958,
      "concl": 2959,
      "mot": 2960,
      "coal": 2961,
      "Chin": 2962,
      "lands": 2963,
      "thinking": 2964,
      "regular": 2965,
      "Although": 2966,
      "books": 2967,
      "appears": 2968,
      "couple": 2969,
      "Thursday": 2970,
      "76": 2971,
      "Day": 2972,
      "mist": 2973,
      "rules": 2974,
      "era": 2975,
      "became": 2976,
      "suffer": 2977,
      "poor": 2978,
      "neg": 2979,
      "opt": 2980,
      "perhaps": 2981,
      "berg": 2982,
      "aving": 2983,
      "corre": 2984,
      "drink": 2985,
      "leading": 2986,
      "iverse": 2987,
      "conservative": 2988,
      "considered": 2989,
      "growth": 2990,
      "critic": 2991,
      "style": 2992,
      "library": 2993,
      "54": 2994,
      "El": 2995,
      "\\/": 2996,
      "bb": 2997,
      "crow": 2998,
      "pain": 2999,
      "tober": 3000,
      "hear": 3001,
      "chief": 3002,
      "elly": 3003,
      "audi": 3004,
      "brought": 3005,
      "calls": 3006,
      "charge": 3007,
      "scale": 3008,
      "writing": 3009,
      "covered": 3010,
      "undred": 3011,
      "County": 3012,
      "directly": 3013,
      "Wildstein": 3014,
      "Geor": 3015,
      "thousands": 3016,
      "October": 3017,
      "Che": 3018,
      "sed": 3019,
      "integr": 3020,
      "alia": 3021,
      "secret": 3022,
      "ples": 3023,
      "club": 3024,
      "aud": 3025,
      "hospital": 3026,
      "ption": 3027,
      "Read": 3028,
      "anned": 3029,
      "ideology": 3030,
      "schools": 3031,
      "Google": 3032,
      "primary": 3033,
      "Afric": 3034,
      "FC": 3035,
      "Port": 3036,
      "Spe": 3037,
      "card": 3038,
      "wo": 3039,
      "anim": 3040,
      "itude": 3041,
      "ander": 3042,
      "icit": 3043,
      "seven": 3044,
      "factors": 3045,
      "2008": 3046,
      "various": 3047,
      "practice": 3048,
      "figure": 3049,
      "female": 3050,
      "74": 3051,
      "98": 3052,
      "Over": 3053,
      "Rel": 3054,
      "bol": 3055,
      "gender": 3056,
      "hib": 3057,
      "aming": 3058,
      "plans": 3059,
      "perfect": 3060,
      "ously": 3061,
      "2017": 3062,
      "effort": 3063,
      "Conferences": 3064,
      "society": 3065,
      "official": 3066,
      "reasons": 3067,
      "Donald": 3068,
      "fixed": 3069,
      "population": 3070,
      "71": 3071,
      "Po": 3072,
      "Ver": 3073,
      "cc": 3074,
      "ee": 3075,
      "fast": 3076,
      "huge": 3077,
      "jack": 3078,
      "arm": 3079,
      "isl": 3080,
      "hest": 3081,
      "chance": 3082,
      "Then": 3083,
      "estab": 3084,
      "provided": 3085,
      "cert": 3086,
      "included": 3087,
      "leader": 3088,
      "costs": 3089,
      "join": 3090,
      "written": 3091,
      "claims": 3092,
      "movement": 3093,
      "sexual": 3094,
      "floor": 3095,
      "widget": 3096,
      "App": 3097,
      "ding": 3098,
      "hundred": 3099,
      "recogn": 3100,
      "ida": 3101,
      "ado": 3102,
      "lose": 3103,
      "lives": 3104,
      "neigh": 3105,
      "atever": 3106,
      "exerc": 3107,
      "sole": 3108,
      "manager": 3109,
      "decided": 3110,
      "defense": 3111,
      "scores": 3112,
      "Play": 3113,
      "continued": 3114,
      "target": 3115,
      "victim": 3116,
      "Institute": 3117,
      "strength": 3118,
      "Chinese": 3119,
      "NFL": 3120,
      "RR": 3121,
      "Van": 3122,
      "bf": 3123,
      "dollar": 3124,
      "kids": 3125,
      "rif": 3126,
      "tin": 3127,
      "vice": 3128,
      "stor": 3129,
      "omb": 3130,
      "omen": 3131,
      "forces": 3132,
      "els": 3133,
      "mob": 3134,
      "mov": 3135,
      "workers": 3136,
      "rench": 3137,
      "download": 3138,
      "League": 3139,
      "numbers": 3140,
      "happy": 3141,
      "score": 3142,
      "economy": 3143,
      "certainly": 3144,
      "beginning": 3145,
      "demonstr": 3146,
      "analysis": 3147,
      "69": 3148,
      "Ap": 3149,
      "Cent": 3150,
      "Hill": 3151,
      "Mat": 3152,
      "Pac": 3153,
      "aut": 3154,
      "gins": 3155,
      "rank": 3156,
      "squ": 3157,
      "”.": 3158,
      "intr": 3159,
      "asser": 3160,
      "protest": 3161,
      "tried": 3162,
      "plate": 3163,
      "anyone": 3164,
      "spending": 3165,
      "drug": 3166,
      "addition": 3167,
      "surv": 3168,
      "starting": 3169,
      "See": 3170,
      "levels": 3171,
      "histor": 3172,
      "particularly": 3173,
      "debate": 3174,
      "demand": 3175,
      "vertise": 3176,
      "08": 3177,
      "Au": 3178,
      "During": 3179,
      "Many": 3180,
      "Pre": 3181,
      "gency": 3182,
      "hur": 3183,
      "mic": 3184,
      "ufact": 3185,
      "terror": 3186,
      "cru": 3187,
      "boy": 3188,
      "prevent": 3189,
      "speak": 3190,
      "attention": 3191,
      "served": 3192,
      "weekend": 3193,
      "conditions": 3194,
      "includes": 3195,
      "biggest": 3196,
      "purch": 3197,
      "reedom": 3198,
      "administration": 3199,
      "Sunday": 3200,
      "energy": 3201,
      "72": 3202,
      "Bro": 3203,
      "Brow": 3204,
      "Good": 3205,
      "MS": 3206,
      "Sup": 3207,
      "Satur": 3208,
      "Tre": 3209,
      "psy": 3210,
      "rap": 3211,
      "thus": 3212,
      "throw": 3213,
      "ern": 3214,
      "ened": 3215,
      "altern": 3216,
      "confir": 3217,
      "exc": 3218,
      "ights": 3219,
      "cool": 3220,
      "mechan": 3221,
      "assist": 3222,
      "enced": 3223,
      "Dead": 3224,
      "produced": 3225,
      "maintain": 3226,
      "hands": 3227,
      "required": 3228,
      "allowed": 3229,
      "talking": 3230,
      "science": 3231,
      "models": 3232,
      "culture": 3233,
      "criminal": 3234,
      "People": 3235,
      "Lar": 3236,
      "Up": 3237,
      "Val": 3238,
      "paid": 3239,
      "tour": 3240,
      "infect": 3241,
      "stone": 3242,
      "heat": 3243,
      "comments": 3244,
      "option": 3245,
      "door": 3246,
      "bert": 3247,
      "minth": 3248,
      "encies": 3249,
      "choice": 3250,
      "proved": 3251,
      "largest": 3252,
      "showed": 3253,
      "carry": 3254,
      "increasing": 3255,
      "appeared": 3256,
      "limited": 3257,
      "changed": 3258,
      "allocator": 3259,
      "executive": 3260,
      "status": 3261,
      "Syria": 3262,
      "budget": 3263,
      "Cour": 3264,
      "IR": 3265,
      "Mur": 3266,
      "Rev": 3267,
      "_widget": 3268,
      "aa": 3269,
      "ert": 3270,
      "forts": 3271,
      "hero": 3272,
      "efforts": 3273,
      "topics": 3274,
      "vote": 3275,
      "meaning": 3276,
      "Indian": 3277,
      "latest": 3278,
      "placed": 3279,
      "agreement": 3280,
      "initial": 3281,
      "towards": 3282,
      "July": 3283,
      "Saturday": 3284,
      "//": 3285,
      "Cr": 3286,
      "Gover": 3287,
      "TH": 3288,
      "Yes": 3289,
      "cf": 3290,
      "cab": 3291,
      "wan": 3292,
      "wel": 3293,
      "idge": 3294,
      "nother": 3295,
      "ung": 3296,
      "extra": 3297,
      "ops": 3298,
      "ountain": 3299,
      "guy": 3300,
      "generation": 3301,
      "reports": 3302,
      "liter": 3303,
      "politics": 3304,
      "Police": 3305,
      "Studies": 3306,
      "Bur": 3307,
      "OS": 3308,
      "Oz": 3309,
      "blood": 3310,
      "cli": 3311,
      "gone": 3312,
      "rock": 3313,
      "absol": 3314,
      "do_widget": 3315,
      "speed": 3316,
      "genetic": 3317,
      "detail": 3318,
      "details": 3319,
      "stitution": 3320,
      "focus": 3321,
      "Flor": 3322,
      "copy": 3323,
      "61": 3324,
      "73": 3325,
      "Di": 3326,
      "Lu": 3327,
      "bd": 3328,
      "cil": 3329,
      "cam": 3330,
      "frequ": 3331,
      "giving": 3332,
      "sn": 3333,
      "convers": 3334,
      "tele": 3335,
      "trade": 3336,
      "manufact": 3337,
      "pped": 3338,
      "foreign": 3339,
      "Because": 3340,
      "opened": 3341,
      "attacks": 3342,
      "eventually": 3343,
      "Space": 3344,
      "Russian": 3345,
      "Democratic": 3346,
      "completely": 3347,
      "avoid": 3348,
      "62": 3349,
      "84": 3350,
      "Sav": 3351,
      "Vir": 3352,
      "aur": 3353,
      "b9": 3354,
      "cross": 3355,
      "fine": 3356,
      "flow": 3357,
      "mill": 3358,
      "names": 3359,
      "wood": 3360,
      "independ": 3361,
      "reet": 3362,
      "ening": 3363,
      "beha": 3364,
      "agon": 3365,
      "moving": 3366,
      "apy": 3367,
      "astic": 3368,
      "indic": 3369,
      "larger": 3370,
      "experiment": 3371,
      "caused": 3372,
      "controll": 3373,
      "sites": 3374,
      "Canadian": 3375,
      "killed": 3376,
      "Study": 3377,
      "liberals": 3378,
      "doub": 3379,
      "challeng": 3380,
      "document": 3381,
      "absolute": 3382,
      "Florida": 3383,
      "Bush": 3384,
      "Em": 3385,
      "Ken": 3386,
      "Mart": 3387,
      "tro": 3388,
      "vict": 3389,
      "yal": 3390,
      "erry": 3391,
      "ona": 3392,
      "restr": 3393,
      "accoun": 3394,
      "academ": 3395,
      "agency": 3396,
      "kept": 3397,
      "antic": 3398,
      "active": 3399,
      "compar": 3400,
      "events": 3401,
      "Ann": 3402,
      "ishing": 3403,
      "Also": 3404,
      "learn": 3405,
      "deliver": 3406,
      "systems": 3407,
      "containers": 3408,
      "India": 3409,
      "middle": 3410,
      "soft": 3411,
      "Republicans": 3412,
      "failed": 3413,
      "Russia": 3414,
      "physical": 3415,
      "items": 3416,
      "langu": 3417,
      "500": 3418,
      "://": 3419,
      "Mor": 3420,
      "Ru": 3421,
      "Tor": 3422,
      "gives": 3423,
      "knew": 3424,
      "lor": 3425,
      "pict": 3426,
      "rain": 3427,
      "table": 3428,
      "zz": 3429,
      "remember": 3430,
      "although": 3431,
      "lec": 3432,
      "sey": 3433,
      "sets": 3434,
      "vember": 3435,
      "akers": 3436,
      "ipt": 3437,
      "November": 3438,
      "throughout": 3439,
      "legisl": 3440,
      "smart": 3441,
      "capital": 3442,
      "fighting": 3443,
      "funding": 3444,
      "spokes": 3445,
      "girl": 3446,
      "enjoy": 3447,
      "AD": 3448,
      "Another": 3449,
      "Cal": 3450,
      "Fin": 3451,
      "Found": 3452,
      "apo": 3453,
      "c0": 3454,
      "d9": 3455,
      "die": 3456,
      "died": 3457,
      "danger": 3458,
      "gi": 3459,
      "lic": 3460,
      "named": 3461,
      "sil": 3462,
      "tend": 3463,
      "store": 3464,
      "aled": 3465,
      "asy": 3466,
      "ami": 3467,
      "los": 3468,
      "deed": 3469,
      "erson": 3470,
      "teach": 3471,
      "epis": 3472,
      "positive": 3473,
      "interaction": 3474,
      "temper": 3475,
      "Island": 3476,
      "lawy": 3477,
      "claimed": 3478,
      "argument": 3479,
      "policies": 3480,
      "recommend": 3481,
      "(@": 3482,
      "AL": 3483,
      "Get": 3484,
      "IL": 3485,
      "Kr": 3486,
      "Low": 3487,
      "Mid": 3488,
      "PC": 3489,
      "Pal": 3490,
      "River": 3491,
      "VR": 3492,
      "eth": 3493,
      "eight": 3494,
      "gel": 3495,
      "mix": 3496,
      "smo": 3497,
      "spr": 3498,
      "song": 3499,
      "tack": 3500,
      "zer": 3501,
      "vector": 3502,
      "concept": 3503,
      "abs": 3504,
      "deg": 3505,
      "lie": 3506,
      "haven": 3507,
      "opin": 3508,
      "shoot": 3509,
      "aves": 3510,
      "ension": 3511,
      "encour": 3512,
      "knows": 3513,
      "condition": 3514,
      "----": 3515,
      "reality": 3516,
      "Minister": 3517,
      "Democrats": 3518,
      "Smith": 3519,
      "Sanders": 3520,
      "Aug": 3521,
      "blog": 3522,
      "bank": 3523,
      "lap": 3524,
      "marr": 3525,
      "pts": 3526,
      "task": 3527,
      "ze": 3528,
      "ino": 3529,
      "aly": 3530,
      "ality": 3531,
      "ingly": 3532,
      "veh": 3533,
      "ceed": 3534,
      "trust": 3535,
      "resour": 3536,
      "shown": 3537,
      "upon": 3538,
      "willing": 3539,
      "atively": 3540,
      "phil": 3541,
      "Association": 3542,
      "functions": 3543,
      "clearly": 3544,
      "Engine": 3545,
      "reached": 3546,
      "panel": 3547,
      "85": 3548,
      "BBC": 3549,
      "God": 3550,
      "Ke": 3551,
      "NAS": 3552,
      "Since": 3553,
      "ahead": 3554,
      "oil": 3555,
      "sle": 3556,
      "sam": 3557,
      "stock": 3558,
      "itar": 3559,
      "acqu": 3560,
      "cher": 3561,
      "chain": 3562,
      "ighest": 3563,
      "cele": 3564,
      "comfort": 3565,
      "prosecut": 3566,
      "fee": 3567,
      "coin": 3568,
      "oting": 3569,
      "otes": 3570,
      "guys": 3571,
      "helminth": 3572,
      "decades": 3573,
      "wonder": 3574,
      "remains": 3575,
      "Christie": 3576,
      "immigr": 3577,
      "England": 3578,
      "existing": 3579,
      "necessary": 3580,
      "gorith": 3581,
      "opportunity": 3582,
      "natural": 3583,
      "correct": 3584,
      "!!": 3585,
      ".’": 3586,
      "03": 3587,
      "06": 3588,
      "2a": 3589,
      "Great": 3590,
      "Kelly": 3591,
      "mine": 3592,
      "nature": 3593,
      "rid": 3594,
      "wise": 3595,
      "infr": 3596,
      "league": 3597,
      "oman": 3598,
      "section": 3599,
      "whatever": 3600,
      "sus": 3601,
      "cture": 3602,
      "unk": 3603,
      "motion": 3604,
      "plant": 3605,
      "features": 3606,
      "compon": 3607,
      "eval": 3608,
      "stra": 3609,
      "minister": 3610,
      "despite": 3611,
      "knowledge": 3612,
      "airs": 3613,
      "supposed": 3614,
      "Arab": 3615,
      "arent": 3616,
      "pattern": 3617,
      "summer": 3618,
      "incident": 3619,
      "Williams": 3620,
      "celebr": 3621,
      "Act": 3622,
      "Ben": 3623,
      "Big": 3624,
      "Bio": 3625,
      "Det": 3626,
      "M19": 3627,
      "Other": 3628,
      "df": 3629,
      "dress": 3630,
      "kick": 3631,
      "oo": 3632,
      "algorith": 3633,
      "arms": 3634,
      "forced": 3635,
      "ays": 3636,
      "mother": 3637,
      "resh": 3638,
      "ips": 3639,
      "owners": 3640,
      "bruary": 3641,
      "attor": 3642,
      "ission": 3643,
      "standing": 3644,
      "valid": 3645,
      "developed": 3646,
      "passed": 3647,
      "advant": 3648,
      "appropri": 3649,
      "senior": 3650,
      "previously": 3651,
      "Super": 3652,
      "citiz": 3653,
      "favorite": 3654,
      "religious": 3655,
      "college": 3656,
      "February": 3657,
      "candidate": 3658,
      "**": 3659,
      "Cap": 3660,
      "French": 3661,
      "NH": 3662,
      "School": 3663,
      "__": 3664,
      "cure": 3665,
      "ried": 3666,
      "sad": 3667,
      "slight": 3668,
      "tic": 3669,
      "uate": 3670,
      "wish": 3671,
      "church": 3672,
      "suit": 3673,
      "century": 3674,
      "internet": 3675,
      "couldn": 3676,
      "useful": 3677,
      "maybe": 3678,
      "2009": 3679,
      "voice": 3680,
      "Comp": 3681,
      "ikes": 3682,
      "skills": 3683,
      "receive": 3684,
      "mitted": 3685,
      "explained": 3686,
      "weapons": 3687,
      "title": 3688,
      "immediately": 3689,
      "George": 3690,
      "05": 3691,
      "East": 3692,
      "James": 3693,
      "file": 3694,
      "highest": 3695,
      "park": 3696,
      "sess": 3697,
      "sens": 3698,
      "vant": 3699,
      "wing": 3700,
      "ered": 3701,
      "ential": 3702,
      "etc": 3703,
      "mental": 3704,
      "noted": 3705,
      "perform": 3706,
      "ideas": 3707,
      "spend": 3708,
      "\u0000\u0000\u0000\u0000\u0000\u0000\u0000\u0000\u0000\u0000\u0000\u0000\u0000\u0000\u0000\u0000\u0000\u0000\u0000\u0000\u0000\u0000\u0000\u0000\u0000\u0000\u0000\u0000\u0000\u0000\u0000\u0000\u0000\u0000\u0000\u0000\u0000\u0000\u0000\u0000\u0000\u0000\u0000\u0000\u0000\u0000\u0000\u0000\u0000\u0000\u0000\u0000": 3709,
      "mostly": 3710,
      "guard": 3711,
      "factor": 3712,
      "laws": 3713,
      "organization": 3714,
      "purpose": 3715,
      "fortun": 3716,
      "container": 3717,
      "reflect": 3718,
      "immune": 3719,
      "English": 3720,
      "authorities": 3721,
      "website": 3722,
      "damage": 3723,
      "individuals": 3724,
      "Korea": 3725,
      "associated": 3726,
      "Court": 3727,
      "Bank": 3728,
      "Hol": 3729,
      "High": 3730,
      "][": 3731,
      "cat": 3732,
      "eah": 3733,
      "hab": 3734,
      "rich": 3735,
      "uint": 3736,
      "wife": 3737,
      "ery": 3738,
      "stage": 3739,
      "edge": 3740,
      "confl": 3741,
      "department": 3742,
      "trou": 3743,
      "saf": 3744,
      "offensive": 3745,
      "Angel": 3746,
      "minor": 3747,
      "Char": 3748,
      "region": 3749,
      "student": 3750,
      "Army": 3751,
      "visit": 3752,
      "capt": 3753,
      "interesting": 3754,
      "sources": 3755,
      "focused": 3756,
      "Image": 3757,
      "scientific": 3758,
      "distribut": 3759,
      "message": 3760,
      "credit": 3761,
      "financial": 3762,
      "negative": 3763,
      "crowd": 3764,
      "vertisement": 3765,
      "\"]": 3766,
      "++": 3767,
      ".\u0000\u0000\u0000\u0000\u0000\u0000\u0000\u0000\u0000\u0000\u0000\u0000\u0000\u0000\u0000\u0000\u0000\u0000\u0000\u0000\u0000\u0000\u0000\u0000\u0000\u0000\u0000\u0000\u0000\u0000\u0000\u0000\u0000\u0000\u0000\u0000\u0000\u0000\u0000\u0000\u0000\u0000\u0000\u0000\u0000\u0000\u0000\u0000\u0000\u0000\u0000\u0000\u0000\u0000\u0000\u0000\u0000\u0000\u0000\u0000\u0000\u0000\u0000\u0000\u0000\u0000\u0000\u0000\u0000\u0000\u0000\u0000\u0000\u0000\u0000\u0000\u0000\u0000\u0000\u0000\u0000\u0000\u0000\u0000\u0000\u0000\u0000\u0000\u0000\u0000\u0000\u0000\u0000\u0000\u0000\u0000\u0000\u0000\u0000\u0000\u0000\u0000\u0000\u0000\u0000\u0000\u0000\u0000\u0000\u0000\u0000\u0000\u0000\u0000\u0000\u0000\u0000\u0000\u0000\u0000\u0000\u0000\u0000\u0000\u0000\u0000\u0000\u0000": 3768,
      "93": 3769,
      "CS": 3770,
      "Mer": 3771,
      "Two": 3772,
      "border": 3773,
      "fare": 3774,
      "kin": 3775,
      "mi": 3776,
      "path": 3777,
      "rand": 3778,
      "anced": 3779,
      "stick": 3780,
      "impress": 3781,
      "univers": 3782,
      "consu": 3783,
      "yourself": 3784,
      "highly": 3785,
      "signed": 3786,
      "researchers": 3787,
      "tells": 3788,
      "suggests": 3789,
      "install": 3790,
      "equip": 3791,
      "Earth": 3792,
      "screen": 3793,
      "jacket": 3794,
      "Hillary": 3795,
      "Govern": 3796,
      "::": 3797,
      "CP": 3798,
      "Follow": 3799,
      "GM": 3800,
      "Last": 3801,
      "Wis": 3802,
      "bc": 3803,
      "brow": 3804,
      "scor": 3805,
      "tou": 3806,
      "inv": 3807,
      "reven": 3808,
      "org": 3809,
      "tool": 3810,
      "accur": 3811,
      "iling": 3812,
      "hair": 3813,
      "doct": 3814,
      "itely": 3815,
      "Star": 3816,
      "Street": 3817,
      "plays": 3818,
      "increased": 3819,
      "stream": 3820,
      "places": 3821,
      "successful": 3822,
      "meeting": 3823,
      "Korean": 3824,
      "benefits": 3825,
      "bottom": 3826,
      "=\"": 3827,
      "Bet": 3828,
      "EN": 3829,
      "Hind": 3830,
      "Let": 3831,
      "Liber": 3832,
      "fat": 3833,
      "freedom": 3834,
      "hous": 3835,
      "iet": 3836,
      "king": 3837,
      "mun": 3838,
      "migr": 3839,
      "pet": 3840,
      "enge": 3841,
      "meant": 3842,
      "herit": 3843,
      "pressure": 3844,
      "Weiss": 3845,
      "counter": 3846,
      "flag": 3847,
      "setting": 3848,
      "France": 3849,
      "subst": 3850,
      "strugg": 3851,
      "presidential": 3852,
      "professional": 3853,
      "failure": 3854,
      "General": 3855,
      "Party": 3856,
      "NASA": 3857,
      "3f": 3858,
      "?\"": 3859,
      "AB": 3860,
      "Bal": 3861,
      "Jack": 3862,
      "NL": 3863,
      "OW": 3864,
      "daily": 3865,
      "gar": 3866,
      "hun": 3867,
      "sch": 3868,
      "tren": 3869,
      "tick": 3870,
      "wall": 3871,
      "atism": 3872,
      "lease": 3873,
      "advis": 3874,
      "image": 3875,
      "loom": 3876,
      "whom": 3877,
      "agreed": 3878,
      "acted": 3879,
      "ester": 3880,
      "Any": 3881,
      "brand": 3882,
      "ensen": 3883,
      "flu": 3884,
      "seeing": 3885,
      "color": 3886,
      "turning": 3887,
      "paying": 3888,
      "apparent": 3889,
      "explan": 3890,
      "critical": 3891,
      "streets": 3892,
      ".\u0000\u0000\u0000\u0000\u0000\u0000\u0000\u0000\u0000\u0000\u0000\u0000\u0000\u0000\u0000\u0000\u0000\u0000\u0000\u0000\u0000\u0000\u0000\u0000\u0000\u0000\u0000\u0000\u0000\u0000\u0000\u0000\u0000\u0000\u0000\u0000\u0000\u0000\u0000\u0000\u0000\u0000\u0000\u0000\u0000\u0000\u0000\u0000\u0000\u0000\u0000\u0000\u0000\u0000\u0000\u0000\u0000\u0000\u0000\u0000\u0000\u0000\u0000\u0000\u0000\u0000\u0000\u0000\u0000\u0000\u0000\u0000\u0000\u0000\u0000\u0000\u0000\u0000\u0000\u0000\u0000\u0000\u0000\u0000\u0000\u0000\u0000\u0000\u0000\u0000\u0000\u0000\u0000\u0000\u0000\u0000\u0000\u0000\u0000\u0000\u0000\u0000\u0000\u0000\u0000\u0000\u0000\u0000\u0000\u0000\u0000\u0000\u0000\u0000\u0000\u0000\u0000\u0000\u0000\u0000\u0000\u0000\u0000\u0000\u0000\u0000\u0000\u0000\u0000\u0000\u0000\u0000\u0000\u0000\u0000\u0000\u0000\u0000\u0000\u0000\u0000\u0000\u0000\u0000\u0000\u0000\u0000\u0000\u0000\u0000\u0000\u0000\u0000\u0000\u0000\u0000\u0000\u0000\u0000\u0000\u0000\u0000\u0000\u0000\u0000\u0000\u0000\u0000\u0000\u0000\u0000\u0000\u0000\u0000\u0000\u0000\u0000\u0000\u0000\u0000\u0000\u0000\u0000\u0000\u0000\u0000\u0000\u0000\u0000\u0000\u0000\u0000\u0000\u0000\u0000\u0000\u0000\u0000\u0000\u0000\u0000\u0000\u0000\u0000\u0000\u0000\u0000\u0000\u0000\u0000\u0000\u0000\u0000\u0000\u0000\u0000\u0000\u0000\u0000\u0000\u0000\u0000\u0000\u0000\u0000\u0000\u0000\u0000\u0000\u0000\u0000\u0000\u0000\u0000\u0000\u0000\u0000\u0000\u0000\u0000\u0000\u0000\u0000\u0000\u0000\u0000\u0000\u0000\u0000\u0000\u0000\u0000\u0000\u0000\u0000\u0000\u0000\u0000\u0000\u0000\u0000\u0000\u0000\u0000\u0000\u0000\u0000\u0000\u0000\u0000\u0000\u0000\u0000\u0000\u0000\u0000\u0000\u0000\u0000\u0000\u0000\u0000\u0000\u0000\u0000\u0000\u0000\u0000\u0000\u0000\u0000\u0000\u0000\u0000\u0000\u0000\u0000\u0000\u0000\u0000\u0000\u0000\u0000\u0000\u0000\u0000\u0000\u0000\u0000\u0000\u0000\u0000\u0000\u0000\u0000\u0000\u0000\u0000\u0000\u0000\u0000\u0000\u0000\u0000\u0000\u0000\u0000\u0000\u0000\u0000\u0000\u0000\u0000\u0000\u0000\u0000\u0000\u0000\u0000\u0000\u0000\u0000\u0000\u0000\u0000\u0000\u0000\u0000\u0000\u0000\u0000\u0000\u0000\u0000\u0000\u0000\u0000\u0000\u0000\u0000\u0000\u0000\u0000\u0000\u0000\u0000\u0000\u0000\u0000\u0000\u0000\u0000\u0000\u0000\u0000\u0000\u0000\u0000\u0000\u0000\u0000\u0000\u0000\u0000": 3893,
      "conduct": 3894,
      "Engineering": 3895,
      "07": 3896,
      "300": 3897,
      "Bre": 3898,
      "Cle": 3899,
      "Cur": 3900,
      "Je": 3901,
      "Los": 3902,
      "Mars": 3903,
      "Mike": 3904,
      "NY": 3905,
      "Rob": 3906,
      "Sha": 3907,
      "ky": 3908,
      "tissue": 3909,
      "vior": 3910,
      "income": 3911,
      "ersey": 3912,
      "assa": 3913,
      "imag": 3914,
      "teen": 3915,
      "notice": 3916,
      "ivity": 3917,
      "occas": 3918,
      "calling": 3919,
      "testing": 3920,
      "asking": 3921,
      "finding": 3922,
      "increases": 3923,
      "Chris": 3924,
      "interested": 3925,
      "conservatism": 3926,
      "clean": 3927,
      "destro": 3928,
      "responsible": 3929,
      "language": 3930,
      "95": 3931,
      "Fed": 3932,
      "Gold": 3933,
      "IT": 3934,
      "Like": 3935,
      "Oh": 3936,
      "Que": 3937,
      "Tex": 3938,
      "bing": 3939,
      "ibe": 3940,
      "nice": 3941,
      "sched": 3942,
      "inci": 3943,
      "replace": 3944,
      "station": 3945,
      "stories": 3946,
      "assu": 3947,
      "lection": 3948,
      "partner": 3949,
      "myself": 3950,
      "helped": 3951,
      "Conserv": 3952,
      "Conference": 3953,
      "produce": 3954,
      "talent": 3955,
      "effective": 3956,
      "Christian": 3957,
      "understanding": 3958,
      "determin": 3959,
      "heavy": 3960,
      "modern": 3961,
      "Richard": 3962,
      "August": 3963,
      "safety": 3964,
      "02": 3965,
      "Cath": 3966,
      "Pi": 3967,
      "Sw": 3968,
      "Tom": 3969,
      "bound": 3970,
      "cum": 3971,
      "rare": 3972,
      "repe": 3973,
      "stated": 3974,
      "oles": 3975,
      "unique": 3976,
      "commer": 3977,
      "excl": 3978,
      "shared": 3979,
      "actual": 3980,
      "earth": 3981,
      "compared": 3982,
      "predict": 3983,
      "arkar": 3984,
      "identified": 3985,
      "ios": 3986,
      "chem": 3987,
      "transfer": 3988,
      "politic": 3989,
      "bodies": 3990,
      "expand": 3991,
      "constant": 3992,
      "\u0000\u0000\u0000\u0000\u0000\u0000\u0000\u0000\u0000\u0000\u0000\u0000\u0000\u0000\u0000\u0000\u0000\u0000\u0000\u0000\u0000\u0000\u0000\u0000\u0000\u0000\u0000\u0000\u0000\u0000\u0000\u0000\u0000\u0000\u0000\u0000\u0000\u0000\u0000\u0000\u0000\u0000\u0000\u0000\u0000\u0000\u0000\u0000\u0000\u0000\u0000\u0000\u0000\u0000\u0000\u0000\u0000\u0000\u0000\u0000\u0000\u0000\u0000\u0000\u0000\u0000\u0000\u0000\u0000\u0000\u0000\u0000\u0000\u0000\u0000\u0000\u0000\u0000\u0000\u0000\u0000\u0000\u0000\u0000\u0000\u0000\u0000\u0000\u0000\u0000\u0000\u0000\u0000\u0000\u0000\u0000\u0000\u0000\u0000\u0000\u0000\u0000\u0000\u0000\u0000\u0000\u0000\u0000\u0000\u0000\u0000\u0000\u0000\u0000\u0000\u0000\u0000\u0000\u0000\u0000\u0000\u0000\u0000\u0000\u0000\u0000\u0000\u0000\u0000\u0000\u0000\u0000\u0000\u0000\u0000\u0000\u0000\u0000\u0000\u0000\u0000\u0000\u0000\u0000\u0000\u0000\u0000\u0000\u0000\u0000\u0000\u0000\u0000\u0000\u0000\u0000\u0000\u0000\u0000\u0000\u0000\u0000\u0000\u0000\u0000\u0000\u0000\u0000\u0000\u0000\u0000\u0000\u0000\u0000\u0000\u0000\u0000\u0000\u0000\u0000\u0000\u0000\u0000\u0000\u0000\u0000\u0000\u0000\u0000\u0000\u0000\u0000\u0000\u0000\u0000\u0000\u0000\u0000\u0000\u0000\u0000\u0000\u0000\u0000\u0000\u0000\u0000\u0000": 3993,
      "Despite": 3994,
      "religion": 3995,
      "www": 3996,
      "virtual": 3997,
      "http": 3998,
      "extremely": 3999,
      "Pacific": 4000,
      "behavior": 4001,
      "straight": 4002,
      "Hel": 4003,
      "Ms": 4004,
      "Mex": 4005,
      "Tod": 4006,
      "Test": 4007,
      "ees": 4008,
      "ga": 4009,
      "leng": 4010,
      "laugh": 4011,
      "pal": 4012,
      "spl": 4013,
      "sales": 4014,
      "reci": 4015,
      "repor": 4016,
      "enem": 4017,
      "notes": 4018,
      "Those": 4019,
      "crime": 4020,
      "partners": 4021,
      "serve": 4022,
      "spread": 4023,
      "rence": 4024,
      "firm": 4025,
      "Reg": 4026,
      "finally": 4027,
      "2007": 4028,
      "relevant": 4029,
      "followed": 4030,
      "allows": 4031,
      "posted": 4032,
      "Columb": 4033,
      "argued": 4034,
      "Step": 4035,
      "analy": 4036,
      "Berlin": 4037,
      "citing": 4038,
      "Phil": 4039,
      "mentioned": 4040,
      "alleged": 4041,
      "exercise": 4042,
      "micro": 4043,
      "Savarkar": 4044,
      "millions": 4045,
      "Foundation": 4046,
      "Columbia": 4047,
      "Bow": 4048,
      "CE": 4049,
      "Gar": 4050,
      "Mal": 4051,
      "Mac": 4052,
      "PA": 4053,
      "Sim": 4054,
      "Tai": 4055,
      "Wales": 4056,
      "bir": 4057,
      "figh": 4058,
      "je": 4059,
      "mas": 4060,
      "nu": 4061,
      "ode": 4062,
      "uk": 4063,
      "orial": 4064,
      "isher": 4065,
      "lyn": 4066,
      "formed": 4067,
      "oll": 4068,
      "construction": 4069,
      "iring": 4070,
      "traff": 4071,
      "ained": 4072,
      "aste": 4073,
      "upd": 4074,
      "Ther": 4075,
      "ieve": 4076,
      "izes": 4077,
      "draft": 4078,
      "provides": 4079,
      "designers": 4080,
      "network": 4081,
      "vention": 4082,
      "operations": 4083,
      "normal": 4084,
      "orders": 4085,
      "easily": 4086,
      "32_t": 4087,
      "Justice": 4088,
      "entirely": 4089,
      "violence": 4090,
      "Related": 4091,
      "Virgin": 4092,
      "slightly": 4093,
      "7e": 4094,
      "Are": 4095,
      "Card": 4096,
      "Hum": 4097,
      "TS": 4098,
      "Wall": 4099,
      "Who": 4100,
      "Ze": 4101,
      "_type": 4102,
      "ape": 4103,
      "cate": 4104,
      "dark": 4105,
      "gay": 4106,
      "ito": 4107,
      "nom": 4108,
      "none": 4109,
      "rise": 4110,
      "south": 4111,
      "ware": 4112,
      "revol": 4113,
      "aland": 4114,
      "ications": 4115,
      "icles": 4116,
      "democr": 4117,
      "peace": 4118,
      "feet": 4119,
      "hoc": 4120,
      "brain": 4121,
      "phen": 4122,
      "ampion": 4123,
      "views": 4124,
      "respond": 4125,
      "possibility": 4126,
      "values": 4127,
      "Prince": 4128,
      "growing": 4129,
      "Council": 4130,
      "racial": 4131,
      "suppor": 4132,
      "participants": 4133,
      "parents": 4134,
      "Islamic": 4135,
      "arrested": 4136,
      "Apple": 4137,
      "Lowen": 4138,
      "attorney": 4139,
      "random": 4140,
      "Government": 4141,
      "04": 4142,
      "2b": 4143,
      "CO": 4144,
      "Cult": 4145,
      "Mag": 4146,
      "Water": 4147,
      "cof": 4148,
      "dc": 4149,
      "dre": 4150,
      "father": 4151,
      "ked": 4152,
      "mur": 4153,
      "na": 4154,
      "rig": 4155,
      "vill": 4156,
      "ws": 4157,
      "wins": 4158,
      "ston": 4159,
      "isions": 4160,
      "iced": 4161,
      "icted": 4162,
      "rose": 4163,
      "agues": 4164,
      "Their": 4165,
      "wear": 4166,
      "fear": 4167,
      "core": 4168,
      "hash": 4169,
      "prison": 4170,
      "compil": 4171,
      "compare": 4172,
      "parties": 4173,
      "ots": 4174,
      "effic": 4175,
      "aware": 4176,
      "2003": 4177,
      "feeling": 4178,
      "powerful": 4179,
      "operation": 4180,
      "winning": 4181,
      "stitut": 4182,
      "Western": 4183,
      "forcement": 4184,
      "rule": 4185,
      "potentially": 4186,
      "liberal": 4187,
      "drop": 4188,
      "radio": 4189,
      "double": 4190,
      "Scott": 4191,
      "audience": 4192,
      "dollars": 4193,
      "doubt": 4194,
      "opinion": 4195,
      "M1918": 4196,
      "Angeles": 4197,
      "length": 4198,
      "8f": 4199,
      "Del": 4200,
      "Hal": 4201,
      "IG": 4202,
      "La": 4203,
      "MP": 4204,
      "Mi": 4205,
      "Mil": 4206,
      "Mad": 4207,
      "Ned": 4208,
      "a9": 4209,
      "bag": 4210,
      "ien": 4211,
      "las": 4212,
      "wave": 4213,
      "xim": 4214,
      "zen": 4215,
      "\u0000\u0000\u0000\u0000\u0000\u0000": 4216,
      "inno": 4217,
      "remark": 4218,
      "secre": 4219,
      "olic": 4220,
      "weak": 4221,
      "wealth": 4222,
      "apt": 4223,
      "oph": 4224,
      "plus": 4225,
      "ody": 4226,
      "ota": 4227,
      "center": 4228,
      "central": 4229,
      "poll": 4230,
      "identity": 4231,
      "bug": 4232,
      "generally": 4233,
      "supported": 4234,
      "paras": 4235,
      "missed": 4236,
      "defensive": 4237,
      "Add": 4238,
      "domin": 4239,
      "telling": 4240,
      "Blue": 4241,
      "McK": 4242,
      "specifically": 4243,
      "stopped": 4244,
      "born": 4245,
      "discussion": 4246,
      "origin": 4247,
      "eyes": 4248,
      "challenge": 4249,
      "computer": 4250,
      "material": 4251,
      "options": 4252,
      "hundreds": 4253,
      "neighbor": 4254,
      "movie": 4255,
      "Texas": 4256,
      "2e": 4257,
      "Bit": 4258,
      "Bloom": 4259,
      "ID": 4260,
      "Ir": 4261,
      "Iran": 4262,
      "Lou": 4263,
      "Please": 4264,
      "Sal": 4265,
      "Ty": 4266,
      "Watch": 4267,
      "Yeah": 4268,
      "cities": 4269,
      "db": 4270,
      "fol": 4271,
      "mm": 4272,
      "male": 4273,
      "makers": 4274,
      "nd": 4275,
      "reate": 4276,
      "oft": 4277,
      "aspect": 4278,
      "frame": 4279,
      "goals": 4280,
      "acts": 4281,
      "princi": 4282,
      "raz": 4283,
      "showing": 4284,
      "handling": 4285,
      "incred": 4286,
      "Commission": 4287,
      "Advertisement": 4288,
      "ISIS": 4289,
      "north": 4290,
      "programs": 4291,
      "easier": 4292,
      "matching": 4293,
      "automatic": 4294,
      "scene": 4295,
      "weapon": 4296,
      "Office": 4297,
      "travel": 4298,
      "disease": 4299,
      "shooting": 4300,
      "3c": 4301,
      "Def": 4302,
      "Haw": 4303,
      "Jersey": 4304,
      "Will": 4305,
      "_iterator": 4306,
      "bid": 4307,
      "gent": 4308,
      "iers": 4309,
      "lad": 4310,
      "pic": 4311,
      "tag": 4312,
      "tweet": 4313,
      "vin": 4314,
      "”,": 4315,
      "outhern": 4316,
      "itter": 4317,
      "asc": 4318,
      "ache": 4319,
      "chair": 4320,
      "agencies": 4321,
      "uries": 4322,
      "prop": 4323,
      "proposed": 4324,
      "apped": 4325,
      "acknow": 4326,
      "worst": 4327,
      "management": 4328,
      "industr": 4329,
      "guess": 4330,
      "raised": 4331,
      "template": 4332,
      "adding": 4333,
      "charged": 4334,
      "issued": 4335,
      "Once": 4336,
      "Ontar": 4337,
      "missing": 4338,
      "belief": 4339,
      "Prof": 4340,
      "solid": 4341,
      "Britain": 4342,
      "professor": 4343,
      "customers": 4344,
      "strategy": 4345,
      "truth": 4346,
      "exception": 4347,
      "regarding": 4348,
      "influence": 4349,
      "victims": 4350,
      "intrusive": 4351,
      "degree": 4352,
      "Virginia": 4353,
      "Ontario": 4354,
      "\":": 4355,
      "6f": 4356,
      "Both": 4357,
      "Er": 4358,
      "Gi": 4359,
      "Game": 4360,
      "Jour": 4361,
      "Lab": 4362,
      "Miss": 4363,
      "gather": 4364,
      "iev": 4365,
      "mail": 4366,
      "ray": 4367,
      "insur": 4368,
      "ante": 4369,
      "arp": 4370,
      "isol": 4371,
      "becomes": 4372,
      "proced": 4373,
      "ower": 4374,
      "fest": 4375,
      "bled": 4376,
      "raise": 4377,
      "Lee": 4378,
      "governor": 4379,
      "requires": 4380,
      "elements": 4381,
      "sugar": 4382,
      "remaining": 4383,
      "faces": 4384,
      "hypo": 4385,
      "basic": 4386,
      "defined": 4387,
      "definitely": 4388,
      "dropped": 4389,
      "magaz": 4390,
      "faith": 4391,
      "estimates": 4392,
      "confirmed": 4393,
      "chemical": 4394,
      "Zealand": 4395,
      "Bill": 4396,
      "Hot": 4397,
      "Sto": 4398,
      "bes": 4399,
      "cro": 4400,
      "cel": 4401,
      "fell": 4402,
      "hon": 4403,
      "kid": 4404,
      "nel": 4405,
      "ries": 4406,
      "rub": 4407,
      "san": 4408,
      "sand": 4409,
      "sports": 4410,
      "tough": 4411,
      "uce": 4412,
      "uana": 4413,
      "inary": 4414,
      "err": 4415,
      "theory": 4416,
      "stro": 4417,
      "stood": 4418,
      "iting": 4419,
      "beat": 4420,
      "illegal": 4421,
      "suspect": 4422,
      "abilities": 4423,
      "outs": 4424,
      "ifying": 4425,
      "shut": 4426,
      "shock": 4427,
      "save": 4428,
      "acking": 4429,
      "Instead": 4430,
      "ansas": 4431,
      "creating": 4432,
      "awn": 4433,
      "Chic": 4434,
      "phones": 4435,
      "flat": 4436,
      "downtown": 4437,
      "0153": 4438,
      "markets": 4439,
      "presented": 4440,
      "seemed": 4441,
      "advoc": 4442,
      "remained": 4443,
      "activity": 4444,
      "ijuana": 4445,
      "structure": 4446,
      "homes": 4447,
      "committee": 4448,
      "rupt": 4449,
      "seeking": 4450,
      "satis": 4451,
      "platform": 4452,
      "journal": 4453,
      "psycho": 4454,
      "conversation": 4455,
      "vehicle": 4456,
      "advantage": 4457,
      "uint32_t": 4458,
      "83": 4459,
      "CA": 4460,
      "ED": 4461,
      "Each": 4462,
      "LS": 4463,
      "Men": 4464,
      "bly": 4465,
      "d5": 4466,
      "gian": 4467,
      "gue": 4468,
      "hate": 4469,
      "jail": 4470,
      "kel": 4471,
      "nine": 4472,
      "patch": 4473,
      "pitch": 4474,
      "rates": 4475,
      "thers": 4476,
      "rey": 4477,
      "leaving": 4478,
      "beer": 4479,
      "verse": 4480,
      "context": 4481,
      "ultim": 4482,
      "apart": 4483,
      "endor": 4484,
      "ups": 4485,
      "odes": 4486,
      "grand": 4487,
      "aked": 4488,
      "positions": 4489,
      "tempor": 4490,
      "void": 4491,
      "feels": 4492,
      "explicit": 4493,
      "largely": 4494,
      "fourth": 4495,
      "northern": 4496,
      "interests": 4497,
      "offered": 4498,
      "traditional": 4499,
      "Design": 4500,
      "circum": 4501,
      "Australia": 4502,
      "estimated": 4503,
      "emergency": 4504,
      "piece": 4505,
      "proposal": 4506,
      "conclud": 4507,
      "Author": 4508,
      "dangerous": 4509,
      "touch": 4510,
      "Chicago": 4511,
      "Bu": 4512,
      "Camp": 4513,
      "Die": 4514,
      "Jay": 4515,
      "NS": 4516,
      "Open": 4517,
      "SS": 4518,
      "Top": 4519,
      "Year": 4520,
      "bought": 4521,
      "gal": 4522,
      "hat": 4523,
      "hang": 4524,
      "pin": 4525,
      "wound": 4526,
      "theless": 4527,
      "sts": 4528,
      "alco": 4529,
      "alian": 4530,
      "asp": 4531,
      "assem": 4532,
      "bell": 4533,
      "ilies": 4534,
      "roit": 4535,
      "consum": 4536,
      "trig": 4537,
      "ulty": 4538,
      "approv": 4539,
      "umes": 4540,
      "quake": 4541,
      "covery": 4542,
      "Stone": 4543,
      "Health": 4544,
      "driven": 4545,
      "logist": 4546,
      "pping": 4547,
      "Asia": 4548,
      "\u0000\u0000\u0000\u0000\u0000\u0000\u0000\u0000\u0000\u0000\u0000\u0000\u0000\u0000\u0000\u0000\u0000\u0000\u0000\u0000\u0000\u0000\u0000\u0000\u0000\u0000\u0000\u0000\u0000\u0000\u0000\u0000\u0000\u0000\u0000\u0000\u0000\u0000\u0000\u0000\u0000\u0000\u0000\u0000\u0000\u0000\u0000\u0000\u0000\u0000\u0000\u0000\u0000\u0000\u0000\u0000\u0000\u0000\u0000\u0000\u0000\u0000\u0000\u0000\u0000\u0000\u0000\u0000\u0000\u0000\u0000\u0000\u0000\u0000\u0000\u0000\u0000\u0000\u0000\u0000\u0000\u0000\u0000\u0000\u0000\u0000\u0000\u0000\u0000\u0000\u0000\u0000\u0000\u0000\u0000\u0000\u0000\u0000\u0000\u0000\u0000\u0000\u0000\u0000\u0000\u0000\u0000\u0000\u0000\u0000\u0000\u0000\u0000\u0000\u0000\u0000\u0000\u0000\u0000\u0000\u0000\u0000\u0000\u0000\u0000\u0000\u0000\u0000\u0000\u0000\u0000\u0000\u0000\u0000\u0000\u0000\u0000\u0000\u0000\u0000\u0000\u0000\u0000\u0000\u0000\u0000\u0000\u0000\u0000\u0000\u0000\u0000\u0000\u0000\u0000\u0000\u0000\u0000\u0000\u0000\u0000\u0000\u0000\u0000\u0000\u0000\u0000\u0000\u0000\u0000\u0000\u0000\u0000\u0000\u0000\u0000\u0000\u0000\u0000\u0000\u0000\u0000\u0000\u0000\u0000\u0000\u0000\u0000\u0000\u0000\u0000\u0000\u0000\u0000\u0000\u0000\u0000\u0000\u0000\u0000\u0000\u0000\u0000\u0000\u0000\u0000\u0000\u0000\u0000\u0000\u0000\u0000\u0000\u0000\u0000\u0000\u0000\u0000\u0000\u0000\u0000\u0000\u0000\u0000\u0000\u0000\u0000\u0000\u0000\u0000\u0000\u0000\u0000\u0000\u0000\u0000\u0000\u0000\u0000\u0000\u0000\u0000\u0000\u0000\u0000\u0000\u0000\u0000\u0000\u0000\u0000\u0000\u0000\u0000\u0000\u0000\u0000\u0000\u0000\u0000\u0000\u0000\u0000\u0000\u0000\u0000\u0000\u0000\u0000\u0000\u0000\u0000\u0000\u0000\u0000\u0000\u0000\u0000\u0000\u0000\u0000\u0000\u0000\u0000\u0000\u0000\u0000\u0000\u0000\u0000\u0000\u0000\u0000\u0000\u0000\u0000\u0000\u0000\u0000\u0000\u0000\u0000\u0000\u0000\u0000\u0000\u0000\u0000\u0000\u0000\u0000\u0000\u0000\u0000\u0000\u0000\u0000\u0000\u0000\u0000\u0000\u0000\u0000\u0000\u0000\u0000\u0000\u0000\u0000\u0000\u0000\u0000\u0000\u0000\u0000\u0000\u0000\u0000\u0000\u0000\u0000\u0000\u0000\u0000\u0000\u0000\u0000\u0000\u0000\u0000\u0000\u0000\u0000\u0000\u0000\u0000\u0000\u0000\u0000\u0000\u0000\u0000\u0000\u0000\u0000\u0000\u0000\u0000\u0000\u0000\u0000\u0000\u0000\u0000\u0000\u0000\u0000\u0000\u0000\u0000\u0000\u0000\u0000\u0000": 4549,
      "Security": 4550,
      "Secret": 4551,
      "arrived": 4552,
      "findings": 4553,
      "continues": 4554,
      "capac": 4555,
      "patient": 4556,
      "Object": 4557,
      "scored": 4558,
      "Grou": 4559,
      "characters": 4560,
      "concerned": 4561,
      "launched": 4562,
      "football": 4563,
      "massive": 4564,
      "expression": 4565,
      "waiting": 4566,
      "application": 4567,
      "corporate": 4568,
      "motiv": 4569,
      "increasingly": 4570,
      "absolutely": 4571,
      "Annual": 4572,
      "destroy": 4573,
      "97": 4574,
      "Bay": 4575,
      "CN": 4576,
      "EC": 4577,
      "Ener": 4578,
      "Jones": 4579,
      "Lake": 4580,
      "Ri": 4581,
      "Your": 4582,
      "barr": 4583,
      "dat": 4584,
      "rang": 4585,
      "va": 4586,
      "wild": 4587,
      "zo": 4588,
      "\u0000\u0000\u0000\u0000\u0000\u0000\u0000": 4589,
      "erve": 4590,
      "icated": 4591,
      "aces": 4592,
      "deploy": 4593,
      "weather": 4594,
      "poly": 4595,
      "negot": 4596,
      "trip": 4597,
      "resist": 4598,
      "uled": 4599,
      "aps": 4600,
      "shop": 4601,
      "typed": 4602,
      "interactions": 4603,
      "Chief": 4604,
      "background": 4605,
      "Under": 4606,
      "finish": 4607,
      "Conway": 4608,
      "commission": 4609,
      "providing": 4610,
      "survey": 4611,
      "iction": 4612,
      "completed": 4613,
      "cuts": 4614,
      "enger": 4615,
      "expert": 4616,
      "causing": 4617,
      "families": 4618,
      "Joe": 4619,
      "Advan": 4620,
      "controvers": 4621,
      "allowing": 4622,
      "pull": 4623,
      "covering": 4624,
      "Carol": 4625,
      "announce": 4626,
      "steps": 4627,
      "radical": 4628,
      "Israeli": 4629,
      "requirements": 4630,
      "methods": 4631,
      "shape": 4632,
      "CHD": 4633,
      "separate": 4634,
      "excited": 4635,
      "spokesman": 4636,
      "commercial": 4637,
      "coffee": 4638,
      "negoti": 4639,
      "1e": 4640,
      "4f": 4641,
      "6e": 4642,
      "81": 4643,
      "82": 4644,
      "Cost": 4645,
      "Ki": 4646,
      "Met": 4647,
      "PM": 4648,
      "Was": 4649,
      "bac": 4650,
      "bass": 4651,
      "fant": 4652,
      "green": 4653,
      "mere": 4654,
      "send": 4655,
      "swit": 4656,
      "iner": 4657,
      "tot": 4658,
      "lege": 4659,
      "hearing": 4660,
      "becoming": 4661,
      "losing": 4662,
      "susp": 4663,
      "sung": 4664,
      "universe": 4665,
      "modif": 4666,
      "ulation": 4667,
      "optim": 4668,
      "onest": 4669,
      "acting": 4670,
      "acks": 4671,
      "endix": 4672,
      "0146": 4673,
      "clin": 4674,
      "prem": 4675,
      "prep": 4676,
      "minute": 4677,
      "drive": 4678,
      "driving": 4679,
      "Church": 4680,
      "phy": 4681,
      "syn": 4682,
      "flight": 4683,
      "roughly": 4684,
      "annual": 4685,
      "breaking": 4686,
      "pression": 4687,
      "helping": 4688,
      "diet": 4689,
      "holds": 4690,
      "electric": 4691,
      "fundament": 4692,
      "Micro": 4693,
      "Bern": 4694,
      "races": 4695,
      "device": 4696,
      "division": 4697,
      "strateg": 4698,
      "Syrian": 4699,
      "mobile": 4700,
      "alternative": 4701,
      "literature": 4702,
      "Martin": 4703,
      "Toronto": 4704,
      "lawyer": 4705,
      "algorithm": 4706,
      "equipment": 4707,
      "scoring": 4708,
      "doctors": 4709,
      "Today": 4710,
      "birth": 4711,
      "Bitcoin": 4712,
      "()": 4713,
      "4e": 4714,
      "Again": 4715,
      "Down": 4716,
      "Mod": 4717,
      "TER": 4718,
      "a5": 4719,
      "catch": 4720,
      "east": 4721,
      "equal": 4722,
      "fresh": 4723,
      "zing": 4724,
      "enforcement": 4725,
      "aling": 4726,
      "andal": 4727,
      "sea": 4728,
      "acher": 4729,
      "uters": 4730,
      "ctic": 4731,
      "lip": 4732,
      "prospect": 4733,
      "resc": 4734,
      "planned": 4735,
      "ows": 4736,
      "worse": 4737,
      "afford": 4738,
      "udge": 4739,
      "ideos": 4740,
      "bling": 4741,
      "otherwise": 4742,
      "owner": 4743,
      "preci": 4744,
      "attitude": 4745,
      "relatively": 4746,
      "issions": 4747,
      "finished": 4748,
      "occup": 4749,
      "surface": 4750,
      "2006": 4751,
      "bigger": 4752,
      "happens": 4753,
      "ordered": 4754,
      "Brad": 4755,
      "changing": 4756,
      "employees": 4757,
      "healthy": 4758,
      "guns": 4759,
      "watching": 4760,
      "Johnson": 4761,
      "Transl": 4762,
      "scientists": 4763,
      "benefit": 4764,
      "connected": 4765,
      "documents": 4766,
      "Lawrence": 4767,
      "obviously": 4768,
      "television": 4769,
      "victory": 4770,
      "comparison": 4771,
      "Biology": 4772,
      "appropriate": 4773,
      "citizens": 4774,
      "typedef": 4775,
      "Advanced": 4776,
      "2f": 4777,
      "Alex": 4778,
      "Back": 4779,
      "DA": 4780,
      "Daily": 4781,
      "Fox": 4782,
      "Mary": 4783,
      "Mont": 4784,
      "Nick": 4785,
      "Pay": 4786,
      "Sa": 4787,
      "Woman": 4788,
      "ais": 4789,
      "banks": 4790,
      "battle": 4791,
      "bomb": 4792,
      "dim": 4793,
      "han": 4794,
      "mand": 4795,
      "wers": 4796,
      "instru": 4797,
      "recru": 4798,
      "ensure": 4799,
      "molec": 4800,
      "shift": 4801,
      "emails": 4802,
      "actor": 4803,
      "cancer": 4804,
      "intent": 4805,
      "cris": 4806,
      "offers": 4807,
      "prefer": 4808,
      "Web": 4809,
      "Reuters": 4810,
      "matism": 4811,
      "iox": 4812,
      "thinks": 4813,
      "visible": 4814,
      "lights": 4815,
      "ships": 4816,
      "profit": 4817,
      "Robert": 4818,
      "promise": 4819,
      "advance": 4820,
      "street": 4821,
      "Edith": 4822,
      "discussed": 4823,
      "marijuana": 4824,
      "photos": 4825,
      "eye": 4826,
      "variety": 4827,
      "Mean": 4828,
      "aju": 4829,
      "treated": 4830,
      "conducted": 4831,
      "Paris": 4832,
      "occurred": 4833,
      "Murray": 4834,
      "comfortable": 4835,
      "Detroit": 4836,
      "conflict": 4837,
      "Catholic": 4838,
      "TestObject": 4839,
      "CEO": 4840,
      "Taiwan": 4841,
      "2000": 4842,
      "4c": 4843,
      "8c": 4844,
      "Further": 4845,
      "Gree": 4846,
      "Long": 4847,
      "Ok": 4848,
      "Pan": 4849,
      "Yet": 4850,
      "dial": 4851,
      "gers": 4852,
      "km": 4853,
      "ux": 4854,
      "thr": 4855,
      "inet": 4856,
      "rep": 4857,
      "rein": 4858,
      "alter": 4859,
      "isation": 4860,
      "enty": 4861,
      "adium": 4862,
      "lots": 4863,
      "igan": 4864,
      "irt": 4865,
      "mod": 4866,
      "comic": 4867,
      "truck": 4868,
      "istan": 4869,
      "emissions": 4870,
      "doctor": 4871,
      "update": 4872,
      "arding": 4873,
      "ored": 4874,
      "achieve": 4875,
      "discontinu": 4876,
      "eff": 4877,
      "presents": 4878,
      "driver": 4879,
      "choose": 4880,
      "isms": 4881,
      "cars": 4882,
      "learning": 4883,
      "Frank": 4884,
      "Leg": 4885,
      "putting": 4886,
      "Tech": 4887,
      "valu": 4888,
      "famous": 4889,
      "Gray": 4890,
      "typically": 4891,
      "inflam": 4892,
      "basis": 4893,
      "basically": 4894,
      "figures": 4895,
      "spoke": 4896,
      "penal": 4897,
      "SCR": 4898,
      "believed": 4899,
      "Senate": 4900,
      "pieces": 4901,
      "featured": 4902,
      "suffered": 4903,
      "integrative": 4904,
      "African": 4905,
      "Appendix": 4906,
      "academic": 4907,
      "episode": 4908,
      "philos": 4909,
      "assault": 4910,
      "traffic": 4911,
      "Miami": 4912,
      "Louis": 4913,
      "intrusive_": 4914,
      "Diego": 4915,
      "Bef": 4916,
      "Braz": 4917,
      "Cam": 4918,
      "Dall": 4919,
      "Jensen": 4920,
      "Kur": 4921,
      "Matt": 4922,
      "OG": 4923,
      "Out": 4924,
      "a0": 4925,
      "b0": 4926,
      "bab": 4927,
      "fif": 4928,
      "nut": 4929,
      "tact": 4930,
      "vast": 4931,
      "za": 4932,
      "atus": 4933,
      "argue": 4934,
      "het": 4935,
      "chron": 4936,
      "consequ": 4937,
      "00000003": 4938,
      "trial": 4939,
      "geo": 4940,
      "managed": 4941,
      "Thus": 4942,
      "Thank": 4943,
      "intended": 4944,
      "iption": 4945,
      "centre": 4946,
      "brief": 4947,
      "twitter": 4948,
      "Associ": 4949,
      "consci": 4950,
      "ashion": 4951,
      "clothes": 4952,
      "closed": 4953,
      "Second": 4954,
      "gotten": 4955,
      "Only": 4956,
      "capable": 4957,
      "Prime": 4958,
      "smaller": 4959,
      "skin": 4960,
      "holding": 4961,
      "developing": 4962,
      "projects": 4963,
      "practical": 4964,
      "profession": 4965,
      "expensive": 4966,
      "accident": 4967,
      "reduce": 4968,
      "significantly": 4969,
      "usual": 4970,
      "necessarily": 4971,
      "truly": 4972,
      "Scot": 4973,
      "introduced": 4974,
      "establish": 4975,
      "Middle": 4976,
      "resources": 4977,
      "apparently": 4978,
      "explanation": 4979,
      "Human": 4980,
      "Carolina": 4981,
      "Microsoft": 4982,
      "Translational": 4983,
      "Meanwhile": 4984,
      "Before": 4985,
      "8e": 4986,
      "Hy": 4987,
      "Ham": 4988,
      "Kansas": 4989,
      "PLA": 4990,
      "Right": 4991,
      "Sc": 4992,
      "Sing": 4993,
      "Tim": 4994,
      "Tun": 4995,
      "Vi": 4996,
      "d7": 4997,
      "faster": 4998,
      "rom": 4999
    },
    "merges": [
      [
        "\u0000",
        "\u0000"
      ],
      [
        "\u0000\u0000",
        "\u0000\u0000"
      ],
      [
        "\u0000\u0000\u0000\u0000",
        "\u0000\u0000\u0000\u0000"
      ],
      [
        "t",
        "h"
      ],
      [
        "\u0000\u0000\u0000\u0000\u0000\u0000\u0000\u0000",
        "\u0000\u0000\u0000\u0000\u0000\u0000\u0000\u0000"
      ],
      [
        "i",
        "n"
      ],
      [
        "e",
        "r"
      ],
      [
        "a",
        "n"
      ],
      [
        "o",
        "n"
      ],
      [
        "th",
        "e"
      ],
      [
        "r",
        "e"
      ],
      [
        "0",
        "0"
      ],
      [
        "a",
        "t"
      ],
      [
        "e",
        "n"
      ],
      [
        "o",
        "r"
      ],
      [
        "s",
        "t"
      ],
      [
        "\u0000\u0000\u0000\u0000\u0000\u0000\u0000\u0000\u0000\u0000\u0000\u0000\u0000\u0000\u0000\u0000",
        "\u0000\u0000\u0000\u0000\u0000\u0000\u0000\u0000\u0000\u0000\u0000\u0000\u0000\u0000\u0000\u0000"
      ],
      [
        "a",
        "l"
      ],
      [
        "e",
        "d"
      ],
      [
        "o",
        "u"
      ],
      [
        "in",
        "g"
      ],
      [
        "a",
        "r"
      ],
      [
        "t",
        "o"
      ],
      [
        "i",
        "s"
      ],
      [
        "e",
        "s"
      ],
      [
        "i",
        "t"
      ],
      [
        "o",
        "f"
      ],
      [
        "an",
        "d"
      ],
      [
        "a",
        "s"
      ],
      [
        "i",
        "c"
      ],
      [
        "l",
        "e"
      ],
      [
        "i",
        "on"
      ],
      [
        "o",
        "m"
      ],
      [
        "h",
        "e"
      ],
      [
        "00",
        "00"
      ],
      [
        "en",
        "t"
      ],
      [
        "s",
        "e"
      ],
      [
        "\u0000\u0000\u0000\u0000\u0000\u0000\u0000\u0000\u0000\u0000\u0000\u0000\u0000\u0000\u0000\u0000\u0000\u0000\u0000\u0000\u0000\u0000\u0000\u0000\u0000\u0000\u0000\u0000\u0000\u0000\u0000\u0000",
        "\u0000\u0000\u0000\u0000\u0000\u0000\u0000\u0000\u0000\u0000\u0000\u0000\u0000\u0000\u0000\u0000\u0000\u0000\u0000\u0000\u0000\u0000\u0000\u0000\u0000\u0000\u0000\u0000\u0000\u0000\u0000\u0000"
      ],
      [
        "a",
        "c"
      ],
      [
        "b",
        "e"
      ],
      [
        "i",
        "l"
      ],
      [
        "v",
        "e"
      ],
      [
        "l",
        "y"
      ],
      [
        "i",
        "d"
      ],
      [
        "r",
        "o"
      ],
      [
        "f",
        "or"
      ],
      [
        "a",
        "d"
      ],
      [
        "th",
        "at"
      ],
      [
        "c",
        "h"
      ],
      [
        "a",
        "y"
      ],
      [
        "a",
        "m"
      ],
      [
        "i",
        "m"
      ],
      [
        "l",
        "o"
      ],
      [
        "i",
        "g"
      ],
      [
        "w",
        "h"
      ],
      [
        "v",
        "er"
      ],
      [
        "n",
        "o"
      ],
      [
        "o",
        "l"
      ],
      [
        "e",
        "t"
      ],
      [
        "e",
        "l"
      ],
      [
        "u",
        "t"
      ],
      [
        "s",
        "u"
      ],
      [
        "c",
        "t"
      ],
      [
        "a",
        "re"
      ],
      [
        "u",
        "n"
      ],
      [
        "c",
        "on"
      ],
      [
        "i",
        "th"
      ],
      [
        "i",
        "r"
      ],
      [
        "at",
        "ion"
      ],
      [
        "a",
        "b"
      ],
      [
        "c",
        "e"
      ],
      [
        "t",
        "er"
      ],
      [
        "a",
        "g"
      ],
      [
        "d",
        "e"
      ],
      [
        "T",
        "he"
      ],
      [
        "00",
        "0"
      ],
      [
        "w",
        "ith"
      ],
      [
        "l",
        "i"
      ],
      [
        "er",
        "e"
      ],
      [
        "m",
        "o"
      ],
      [
        "u",
        "r"
      ],
      [
        "c",
        "om"
      ],
      [
        "h",
        "a"
      ],
      [
        "p",
        "e"
      ],
      [
        "u",
        "s"
      ],
      [
        "er",
        "s"
      ],
      [
        "t",
        "e"
      ],
      [
        "w",
        "e"
      ],
      [
        "0000",
        "000"
      ],
      [
        "il",
        "l"
      ],
      [
        "w",
        "as"
      ],
      [
        "p",
        "o"
      ],
      [
        "n",
        "e"
      ],
      [
        "p",
        "ro"
      ],
      [
        "k",
        "e"
      ],
      [
        "y",
        "ou"
      ],
      [
        "l",
        "d"
      ],
      [
        "t",
        "r"
      ],
      [
        "ou",
        "t"
      ],
      [
        "at",
        "e"
      ],
      [
        "m",
        "ent"
      ],
      [
        "re",
        "s"
      ],
      [
        "u",
        "l"
      ],
      [
        "i",
        "f"
      ],
      [
        "f",
        "r"
      ],
      [
        "al",
        "l"
      ],
      [
        "e",
        "x"
      ],
      [
        "a",
        "p"
      ],
      [
        "o",
        "p"
      ],
      [
        "p",
        "l"
      ],
      [
        "a",
        "in"
      ],
      [
        "o",
        "w"
      ],
      [
        "ig",
        "h"
      ],
      [
        "ou",
        "n"
      ],
      [
        "on",
        "e"
      ],
      [
        "s",
        "o"
      ],
      [
        "u",
        "st"
      ],
      [
        "ha",
        "ve"
      ],
      [
        "\u0000\u0000\u0000\u0000\u0000\u0000\u0000\u0000\u0000\u0000\u0000\u0000\u0000\u0000\u0000\u0000\u0000\u0000\u0000\u0000\u0000\u0000\u0000\u0000\u0000\u0000\u0000\u0000\u0000\u0000\u0000\u0000\u0000\u0000\u0000\u0000\u0000\u0000\u0000\u0000\u0000\u0000\u0000\u0000\u0000\u0000\u0000\u0000\u0000\u0000\u0000\u0000\u0000\u0000\u0000\u0000\u0000\u0000\u0000\u0000\u0000\u0000\u0000\u0000",
        "\u0000\u0000\u0000\u0000\u0000\u0000\u0000\u0000\u0000\u0000\u0000\u0000\u0000\u0000\u0000\u0000\u0000\u0000\u0000\u0000\u0000\u0000\u0000\u0000\u0000\u0000\u0000\u0000\u0000\u0000\u0000\u0000\u0000\u0000\u0000\u0000\u0000\u0000\u0000\u0000\u0000\u0000\u0000\u0000\u0000\u0000\u0000\u0000\u0000\u0000\u0000\u0000\u0000\u0000\u0000\u0000\u0000\u0000\u0000\u0000\u0000\u0000\u0000\u0000"
      ],
      [
        "i",
        "st"
      ],
      [
        "h",
        "is"
      ],
      [
        "ar",
        "t"
      ],
      [
        "it",
        "y"
      ],
      [
        "s",
        "h"
      ],
      [
        "b",
        "y"
      ],
      [
        "e",
        "m"
      ],
      [
        "no",
        "t"
      ],
      [
        "i",
        "ve"
      ],
      [
        "an",
        "t"
      ],
      [
        "ou",
        "ld"
      ],
      [
        "th",
        "er"
      ],
      [
        "u",
        "m"
      ],
      [
        "ou",
        "r"
      ],
      [
        "g",
        "o"
      ],
      [
        "es",
        "s"
      ],
      [
        "th",
        "is"
      ],
      [
        "q",
        "u"
      ],
      [
        "i",
        "es"
      ],
      [
        "f",
        "e"
      ],
      [
        "s",
        "a"
      ],
      [
        "fr",
        "om"
      ],
      [
        "p",
        "er"
      ],
      [
        "ac",
        "t"
      ],
      [
        "d",
        "o"
      ],
      [
        "or",
        "t"
      ],
      [
        "g",
        "e"
      ],
      [
        "al",
        "ly"
      ],
      [
        "ac",
        "k"
      ],
      [
        "en",
        "d"
      ],
      [
        "igh",
        "t"
      ],
      [
        "w",
        "or"
      ],
      [
        "a",
        "st"
      ],
      [
        "c",
        "o"
      ],
      [
        "0",
        "1"
      ],
      [
        "e",
        "ar"
      ],
      [
        "h",
        "as"
      ],
      [
        "i",
        "v"
      ],
      [
        "p",
        "r"
      ],
      [
        "b",
        "ut"
      ],
      [
        "om",
        "e"
      ],
      [
        "u",
        "p"
      ],
      [
        "ar",
        "d"
      ],
      [
        "m",
        "an"
      ],
      [
        "c",
        "l"
      ],
      [
        "I",
        "n"
      ],
      [
        "g",
        "h"
      ],
      [
        "o",
        "d"
      ],
      [
        "el",
        "l"
      ],
      [
        "m",
        "e"
      ],
      [
        "c",
        "i"
      ],
      [
        "c",
        "an"
      ],
      [
        "sa",
        "id"
      ],
      [
        "a",
        "u"
      ],
      [
        "the",
        "y"
      ],
      [
        "T",
        "h"
      ],
      [
        "w",
        "ill"
      ],
      [
        "g",
        "r"
      ],
      [
        "in",
        "d"
      ],
      [
        "an",
        "s"
      ],
      [
        "p",
        "ort"
      ],
      [
        "a",
        "k"
      ],
      [
        "in",
        "e"
      ],
      [
        "ic",
        "h"
      ],
      [
        "ou",
        "gh"
      ],
      [
        "a",
        "f"
      ],
      [
        "u",
        "d"
      ],
      [
        "id",
        "e"
      ],
      [
        "ag",
        "e"
      ],
      [
        "wh",
        "o"
      ],
      [
        "on",
        "g"
      ],
      [
        "o",
        "k"
      ],
      [
        "com",
        "p"
      ],
      [
        "mo",
        "re"
      ],
      [
        "ic",
        "e"
      ],
      [
        "oun",
        "d"
      ],
      [
        "in",
        "t"
      ],
      [
        "e",
        "v"
      ],
      [
        "c",
        "r"
      ],
      [
        "u",
        "re"
      ],
      [
        "b",
        "o"
      ],
      [
        "f",
        "er"
      ],
      [
        "e",
        "st"
      ],
      [
        "d",
        "er"
      ],
      [
        "at",
        "ed"
      ],
      [
        "9",
        "9"
      ],
      [
        "the",
        "ir"
      ],
      [
        "am",
        "e"
      ],
      [
        "en",
        "ce"
      ],
      [
        "s",
        "ome"
      ],
      [
        "no",
        "w"
      ],
      [
        "ou",
        "s"
      ],
      [
        "b",
        "er"
      ],
      [
        "ion",
        "s"
      ],
      [
        "t",
        "im"
      ],
      [
        "ab",
        "out"
      ],
      [
        "I",
        "t"
      ],
      [
        "i",
        "re"
      ],
      [
        "i",
        "e"
      ],
      [
        "i",
        "a"
      ],
      [
        "st",
        "r"
      ],
      [
        "wh",
        "ich"
      ],
      [
        "w",
        "ere"
      ],
      [
        "b",
        "l"
      ],
      [
        "ver",
        "y"
      ],
      [
        "w",
        "ay"
      ],
      [
        "h",
        "ad"
      ],
      [
        "y",
        "ear"
      ],
      [
        "p",
        "art"
      ],
      [
        "w",
        "ould"
      ],
      [
        "a",
        "ke"
      ],
      [
        "an",
        "y"
      ],
      [
        "ab",
        "le"
      ],
      [
        "i",
        "z"
      ],
      [
        "th",
        "ing"
      ],
      [
        "lo",
        "w"
      ],
      [
        "i",
        "p"
      ],
      [
        "li",
        "ke"
      ],
      [
        "ig",
        "n"
      ],
      [
        "g",
        "et"
      ],
      [
        "c",
        "re"
      ],
      [
        "be",
        "en"
      ],
      [
        "d",
        "ay"
      ],
      [
        "wor",
        "k"
      ],
      [
        "s",
        "er"
      ],
      [
        "h",
        "er"
      ],
      [
        "c",
        "k"
      ],
      [
        "o",
        "t"
      ],
      [
        "o",
        "re"
      ],
      [
        "a",
        "v"
      ],
      [
        "o",
        "ther"
      ],
      [
        "ow",
        "n"
      ],
      [
        "o",
        "ver"
      ],
      [
        "x",
        "t"
      ],
      [
        "ac",
        "h"
      ],
      [
        "d",
        "is"
      ],
      [
        "of",
        "f"
      ],
      [
        "it",
        "s"
      ],
      [
        "2",
        "01"
      ],
      [
        "ar",
        "y"
      ],
      [
        "ic",
        "al"
      ],
      [
        "con",
        "t"
      ],
      [
        "s",
        "p"
      ],
      [
        "th",
        "an"
      ],
      [
        "d",
        "u"
      ],
      [
        "ac",
        "e"
      ],
      [
        "m",
        "er"
      ],
      [
        "e",
        "p"
      ],
      [
        "h",
        "o"
      ],
      [
        "i",
        "b"
      ],
      [
        "ne",
        "w"
      ],
      [
        "i",
        "al"
      ],
      [
        "th",
        "ere"
      ],
      [
        "e",
        "f"
      ],
      [
        "t",
        "y"
      ],
      [
        "it",
        "e"
      ],
      [
        "op",
        "le"
      ],
      [
        "po",
        "s"
      ],
      [
        "A",
        "n"
      ],
      [
        "t",
        "s"
      ],
      [
        "as",
        "s"
      ],
      [
        "m",
        "y"
      ],
      [
        "a",
        "w"
      ],
      [
        "is",
        "h"
      ],
      [
        "p",
        "res"
      ],
      [
        "a",
        "il"
      ],
      [
        "c",
        "ent"
      ],
      [
        "p",
        "re"
      ],
      [
        "S",
        "t"
      ],
      [
        "the",
        "m"
      ],
      [
        "H",
        "e"
      ],
      [
        "W",
        "h"
      ],
      [
        "in",
        "ter"
      ],
      [
        "pe",
        "ople"
      ],
      [
        "tim",
        "e"
      ],
      [
        "al",
        "so"
      ],
      [
        "b",
        "r"
      ],
      [
        "i",
        "an"
      ],
      [
        "s",
        "ay"
      ],
      [
        "j",
        "ust"
      ],
      [
        "in",
        "k"
      ],
      [
        "re",
        "e"
      ],
      [
        "re",
        "n"
      ],
      [
        "u",
        "e"
      ],
      [
        ".",
        "”"
      ],
      [
        "t",
        "w"
      ],
      [
        "ar",
        "k"
      ],
      [
        "l",
        "l"
      ],
      [
        "i",
        "le"
      ],
      [
        "4",
        "4"
      ],
      [
        "ation",
        "s"
      ],
      [
        "wh",
        "at"
      ],
      [
        "pl",
        "ay"
      ],
      [
        "ic",
        "k"
      ],
      [
        "1",
        "9"
      ],
      [
        "p",
        "ol"
      ],
      [
        "c",
        "or"
      ],
      [
        "or",
        "y"
      ],
      [
        "m",
        "in"
      ],
      [
        "wh",
        "en"
      ],
      [
        "d",
        "r"
      ],
      [
        "W",
        "e"
      ],
      [
        "f",
        "ir"
      ],
      [
        "as",
        "e"
      ],
      [
        "ct",
        "ion"
      ],
      [
        "C",
        "h"
      ],
      [
        "in",
        "to"
      ],
      [
        "en",
        "s"
      ],
      [
        "or",
        "s"
      ],
      [
        "\u0000\u0000\u0000\u0000\u0000\u0000\u0000\u0000\u0000\u0000\u0000\u0000\u0000\u0000\u0000\u0000\u0000\u0000\u0000\u0000\u0000\u0000\u0000\u0000\u0000\u0000\u0000\u0000\u0000\u0000\u0000\u0000",
        "\u0000\u0000\u0000\u0000\u0000\u0000\u0000\u0000\u0000\u0000\u0000\u0000\u0000\u0000\u0000\u0000"
      ],
      [
        "you",
        "r"
      ],
      [
        "o",
        "b"
      ],
      [
        "mo",
        "st"
      ],
      [
        "en",
        "c"
      ],
      [
        "s",
        "pe"
      ],
      [
        "m",
        "on"
      ],
      [
        "it",
        "ion"
      ],
      [
        "d",
        "es"
      ],
      [
        "c",
        "au"
      ],
      [
        "f",
        "ul"
      ],
      [
        ",",
        "”"
      ],
      [
        "T",
        "his"
      ],
      [
        "b",
        "ack"
      ],
      [
        "g",
        "u"
      ],
      [
        "p",
        "le"
      ],
      [
        "p",
        "t"
      ],
      [
        "k",
        "now"
      ],
      [
        "at",
        "es"
      ],
      [
        "cau",
        "se"
      ],
      [
        "m",
        "ed"
      ],
      [
        "an",
        "ce"
      ],
      [
        "ol",
        "d"
      ],
      [
        "\u0000\u0000\u0000\u0000\u0000\u0000\u0000\u0000\u0000\u0000\u0000\u0000\u0000\u0000\u0000\u0000\u0000\u0000\u0000\u0000\u0000\u0000\u0000\u0000\u0000\u0000\u0000\u0000\u0000\u0000\u0000\u0000\u0000\u0000\u0000\u0000\u0000\u0000\u0000\u0000\u0000\u0000\u0000\u0000\u0000\u0000\u0000\u0000",
        "\u0000\u0000\u0000\u0000\u0000\u0000\u0000\u0000"
      ],
      [
        "be",
        "t"
      ],
      [
        "\u0000\u0000\u0000\u0000\u0000\u0000\u0000\u0000\u0000\u0000\u0000\u0000\u0000\u0000\u0000\u0000\u0000\u0000\u0000\u0000\u0000\u0000\u0000\u0000\u0000\u0000\u0000\u0000\u0000\u0000\u0000\u0000\u0000\u0000\u0000\u0000\u0000\u0000\u0000\u0000\u0000\u0000\u0000\u0000\u0000\u0000\u0000\u0000\u0000\u0000\u0000\u0000\u0000\u0000\u0000\u0000\u0000\u0000\u0000\u0000\u0000\u0000\u0000\u0000",
        "\u0000\u0000\u0000\u0000\u0000\u0000\u0000\u0000\u0000\u0000\u0000\u0000\u0000\u0000\u0000\u0000\u0000\u0000\u0000\u0000\u0000\u0000\u0000\u0000\u0000\u0000\u0000\u0000\u0000\u0000\u0000\u0000"
      ],
      [
        "g",
        "en"
      ],
      [
        "B",
        "ut"
      ],
      [
        "s",
        "he"
      ],
      [
        "il",
        "d"
      ],
      [
        "id",
        "ent"
      ],
      [
        "d",
        "if"
      ],
      [
        "af",
        "ter"
      ],
      [
        "lo",
        "g"
      ],
      [
        "\u0000\u0000\u0000\u0000\u0000\u0000\u0000\u0000\u0000\u0000\u0000\u0000\u0000\u0000\u0000\u0000\u0000\u0000\u0000\u0000\u0000\u0000\u0000\u0000\u0000\u0000\u0000\u0000\u0000\u0000\u0000\u0000\u0000\u0000\u0000\u0000\u0000\u0000\u0000\u0000\u0000\u0000\u0000\u0000\u0000\u0000\u0000\u0000\u0000\u0000\u0000\u0000\u0000\u0000\u0000\u0000\u0000\u0000\u0000\u0000\u0000\u0000\u0000\u0000\u0000\u0000\u0000\u0000\u0000\u0000\u0000\u0000\u0000\u0000\u0000\u0000\u0000\u0000\u0000\u0000\u0000\u0000\u0000\u0000\u0000\u0000\u0000\u0000\u0000\u0000\u0000\u0000\u0000\u0000\u0000\u0000\u0000\u0000\u0000\u0000\u0000\u0000\u0000\u0000\u0000\u0000\u0000\u0000\u0000\u0000\u0000\u0000\u0000\u0000\u0000\u0000\u0000\u0000\u0000\u0000\u0000\u0000\u0000\u0000\u0000\u0000\u0000\u0000",
        "\u0000\u0000\u0000\u0000\u0000\u0000\u0000\u0000\u0000\u0000\u0000\u0000\u0000\u0000\u0000\u0000\u0000\u0000\u0000\u0000\u0000\u0000\u0000\u0000\u0000\u0000\u0000\u0000\u0000\u0000\u0000\u0000"
      ],
      [
        "T",
        "r"
      ],
      [
        "u",
        "bl"
      ],
      [
        ".",
        "\""
      ],
      [
        "ver",
        "s"
      ],
      [
        "at",
        "ive"
      ],
      [
        "c",
        "oun"
      ],
      [
        "r",
        "a"
      ],
      [
        "\u0000\u0000\u0000\u0000\u0000\u0000\u0000\u0000\u0000\u0000\u0000\u0000\u0000\u0000\u0000\u0000\u0000\u0000\u0000\u0000\u0000\u0000\u0000\u0000\u0000\u0000\u0000\u0000\u0000\u0000\u0000\u0000\u0000\u0000\u0000\u0000\u0000\u0000\u0000\u0000\u0000\u0000\u0000\u0000\u0000\u0000\u0000\u0000\u0000\u0000\u0000\u0000\u0000\u0000\u0000\u0000\u0000\u0000\u0000\u0000\u0000\u0000\u0000\u0000\u0000\u0000\u0000\u0000\u0000\u0000\u0000\u0000\u0000\u0000\u0000\u0000\u0000\u0000\u0000\u0000\u0000\u0000\u0000\u0000\u0000\u0000\u0000\u0000\u0000\u0000\u0000\u0000\u0000\u0000\u0000\u0000\u0000\u0000\u0000\u0000\u0000\u0000\u0000\u0000\u0000\u0000\u0000\u0000\u0000\u0000\u0000\u0000\u0000\u0000\u0000\u0000\u0000\u0000\u0000\u0000\u0000\u0000\u0000\u0000\u0000\u0000\u0000\u0000\u0000\u0000\u0000\u0000\u0000\u0000\u0000\u0000\u0000\u0000\u0000\u0000\u0000\u0000\u0000\u0000\u0000\u0000\u0000\u0000\u0000\u0000\u0000\u0000\u0000\u0000\u0000\u0000\u0000\u0000\u0000\u0000",
        "\u0000\u0000\u0000\u0000\u0000\u0000\u0000\u0000"
      ],
      [
        "d",
        "on"
      ],
      [
        "o",
        "se"
      ],
      [
        "fir",
        "st"
      ],
      [
        "\u0000\u0000\u0000\u0000\u0000\u0000\u0000\u0000\u0000\u0000\u0000\u0000\u0000\u0000\u0000\u0000\u0000\u0000\u0000\u0000\u0000\u0000\u0000\u0000\u0000\u0000\u0000\u0000\u0000\u0000\u0000\u0000\u0000\u0000\u0000\u0000\u0000\u0000\u0000\u0000\u0000\u0000\u0000\u0000\u0000\u0000\u0000\u0000\u0000\u0000\u0000\u0000\u0000\u0000\u0000\u0000\u0000\u0000\u0000\u0000\u0000\u0000\u0000\u0000\u0000\u0000\u0000\u0000\u0000\u0000\u0000\u0000\u0000\u0000\u0000\u0000\u0000\u0000\u0000\u0000\u0000\u0000\u0000\u0000\u0000\u0000\u0000\u0000\u0000\u0000\u0000\u0000\u0000\u0000\u0000\u0000",
        "\u0000\u0000\u0000\u0000"
      ],
      [
        "te",
        "m"
      ],
      [
        "at",
        "t"
      ],
      [
        "c",
        "ur"
      ],
      [
        "N",
        "e"
      ],
      [
        "6",
        "44"
      ],
      [
        "tw",
        "o"
      ],
      [
        "fe",
        "ct"
      ],
      [
        "\u0000\u0000\u0000\u0000\u0000\u0000\u0000\u0000\u0000\u0000\u0000\u0000\u0000\u0000\u0000\u0000\u0000\u0000\u0000\u0000\u0000\u0000\u0000\u0000\u0000\u0000\u0000\u0000\u0000\u0000\u0000\u0000\u0000\u0000\u0000\u0000\u0000\u0000\u0000\u0000\u0000\u0000\u0000\u0000\u0000\u0000\u0000\u0000\u0000\u0000\u0000\u0000\u0000\u0000\u0000\u0000\u0000\u0000\u0000\u0000\u0000\u0000\u0000\u0000",
        "\u0000"
      ],
      [
        "t",
        "xt"
      ],
      [
        "0000",
        "0000000"
      ],
      [
        "0000",
        "644"
      ],
      [
        "ust",
        "ar"
      ],
      [
        "c",
        "ess"
      ],
      [
        "re",
        "ad"
      ],
      [
        "h",
        "im"
      ],
      [
        "p",
        "p"
      ],
      [
        "c",
        "ould"
      ],
      [
        "an",
        "g"
      ],
      [
        "1",
        "0"
      ],
      [
        "p",
        "h"
      ],
      [
        "for",
        "m"
      ],
      [
        "R",
        "e"
      ],
      [
        "ser",
        "v"
      ],
      [
        "on",
        "ly"
      ],
      [
        "l",
        "and"
      ],
      [
        "t",
        "ing"
      ],
      [
        "se",
        "l"
      ],
      [
        "r",
        "y"
      ],
      [
        "h",
        "ow"
      ],
      [
        "A",
        "s"
      ],
      [
        "re",
        "at"
      ],
      [
        "ad",
        "e"
      ],
      [
        "n",
        "ing"
      ],
      [
        "w",
        "ant"
      ],
      [
        "i",
        "ous"
      ],
      [
        "ul",
        "t"
      ],
      [
        "e",
        "k"
      ],
      [
        "f",
        "ore"
      ],
      [
        "U",
        "n"
      ],
      [
        "s",
        "y"
      ],
      [
        "m",
        "at"
      ],
      [
        "ment",
        "s"
      ],
      [
        ",",
        "\""
      ],
      [
        "d",
        "id"
      ],
      [
        "f",
        "l"
      ],
      [
        "ar",
        "ch"
      ],
      [
        "ad",
        "d"
      ],
      [
        "m",
        "u"
      ],
      [
        "re",
        "l"
      ],
      [
        "ch",
        "o"
      ],
      [
        "An",
        "d"
      ],
      [
        "ne",
        "ed"
      ],
      [
        "b",
        "u"
      ],
      [
        "if",
        "ic"
      ],
      [
        "i",
        "ed"
      ],
      [
        "be",
        "cause"
      ],
      [
        "i",
        "o"
      ],
      [
        "ro",
        "w"
      ],
      [
        "a",
        "ir"
      ],
      [
        "d",
        "own"
      ],
      [
        "u",
        "se"
      ],
      [
        "as",
        "on"
      ],
      [
        "un",
        "der"
      ],
      [
        "po",
        "int"
      ],
      [
        "th",
        "ink"
      ],
      [
        "man",
        "y"
      ],
      [
        "u",
        "al"
      ],
      [
        "tr",
        "y"
      ],
      [
        "is",
        "s"
      ],
      [
        "us",
        "ed"
      ],
      [
        "wh",
        "ere"
      ],
      [
        "re",
        "g"
      ],
      [
        "lo",
        "ok"
      ],
      [
        "he",
        "l"
      ],
      [
        "f",
        "in"
      ],
      [
        "dif",
        "fer"
      ],
      [
        "f",
        "un"
      ],
      [
        "A",
        "mer"
      ],
      [
        "e",
        "ct"
      ],
      [
        "Ne",
        "w"
      ],
      [
        "com",
        "e"
      ],
      [
        "in",
        "cl"
      ],
      [
        "Amer",
        "ic"
      ],
      [
        "the",
        "n"
      ],
      [
        "is",
        "e"
      ],
      [
        "res",
        "s"
      ],
      [
        "\u0000\u0000\u0000\u0000\u0000\u0000\u0000\u0000\u0000\u0000\u0000\u0000\u0000\u0000\u0000\u0000\u0000\u0000\u0000\u0000\u0000\u0000\u0000\u0000\u0000\u0000\u0000\u0000\u0000\u0000\u0000\u0000\u0000\u0000\u0000\u0000\u0000\u0000\u0000\u0000\u0000\u0000\u0000\u0000\u0000\u0000\u0000\u0000\u0000\u0000\u0000\u0000\u0000\u0000\u0000\u0000\u0000\u0000\u0000\u0000\u0000\u0000\u0000\u0000\u0000\u0000\u0000\u0000\u0000\u0000\u0000\u0000\u0000\u0000\u0000\u0000\u0000\u0000\u0000\u0000\u0000\u0000\u0000\u0000\u0000\u0000\u0000\u0000\u0000\u0000\u0000\u0000\u0000\u0000\u0000\u0000\u0000\u0000\u0000\u0000\u0000\u0000\u0000\u0000\u0000\u0000\u0000\u0000\u0000\u0000\u0000\u0000\u0000\u0000\u0000\u0000\u0000\u0000\u0000\u0000\u0000\u0000\u0000\u0000\u0000\u0000\u0000\u0000",
        "\u0000\u0000\u0000\u0000\u0000\u0000\u0000\u0000\u0000\u0000\u0000\u0000\u0000\u0000\u0000\u0000\u0000\u0000\u0000\u0000\u0000\u0000\u0000\u0000\u0000\u0000\u0000\u0000\u0000\u0000\u0000\u0000\u0000\u0000\u0000\u0000\u0000\u0000\u0000\u0000\u0000\u0000\u0000\u0000\u0000\u0000\u0000\u0000\u0000\u0000\u0000\u0000\u0000\u0000\u0000\u0000\u0000\u0000\u0000\u0000\u0000\u0000\u0000\u0000\u0000\u0000\u0000\u0000\u0000\u0000\u0000\u0000\u0000\u0000\u0000\u0000\u0000\u0000\u0000\u0000\u0000\u0000\u0000\u0000\u0000\u0000\u0000\u0000\u0000\u0000\u0000\u0000\u0000\u0000\u0000\u0000\u0000\u0000\u0000\u0000\u0000\u0000\u0000\u0000\u0000\u0000\u0000\u0000\u0000\u0000\u0000\u0000\u0000\u0000\u0000\u0000\u0000\u0000\u0000\u0000\u0000\u0000\u0000\u0000\u0000\u0000\u0000\u0000"
      ],
      [
        "ent",
        "s"
      ],
      [
        "S",
        "o"
      ],
      [
        "m",
        "ay"
      ],
      [
        "year",
        "s"
      ],
      [
        "D",
        "e"
      ],
      [
        "t",
        "ed"
      ],
      [
        "r",
        "ough"
      ],
      [
        "st",
        "ud"
      ],
      [
        "C",
        "on"
      ],
      [
        "c",
        "ed"
      ],
      [
        "m",
        "ake"
      ],
      [
        "ubl",
        "ic"
      ],
      [
        "at",
        "ing"
      ],
      [
        "r",
        "ight"
      ],
      [
        "com",
        "m"
      ],
      [
        "r",
        "it"
      ],
      [
        "ag",
        "ain"
      ],
      [
        "ev",
        "en"
      ],
      [
        "e",
        "very"
      ],
      [
        "sh",
        "ould"
      ],
      [
        "pro",
        "v"
      ],
      [
        "1",
        "2"
      ],
      [
        "re",
        "d"
      ],
      [
        "be",
        "ing"
      ],
      [
        "go",
        "ing"
      ],
      [
        "mu",
        "ch"
      ],
      [
        "ation",
        "al"
      ],
      [
        "te",
        "am"
      ],
      [
        "l",
        "ast"
      ],
      [
        "1",
        "5"
      ],
      [
        "o",
        "c"
      ],
      [
        "w",
        "ell"
      ],
      [
        ")",
        "."
      ],
      [
        "th",
        "ough"
      ],
      [
        "c",
        "all"
      ],
      [
        "h",
        "igh"
      ],
      [
        "c",
        "er"
      ],
      [
        "ic",
        "s"
      ],
      [
        "te",
        "st"
      ],
      [
        "the",
        "se"
      ],
      [
        "01",
        "5"
      ],
      [
        "ch",
        "ar"
      ],
      [
        "su",
        "r"
      ],
      [
        "pro",
        "du"
      ],
      [
        "at",
        "er"
      ],
      [
        "p",
        "s"
      ],
      [
        "le",
        "ct"
      ],
      [
        "l",
        "ess"
      ],
      [
        "se",
        "e"
      ],
      [
        "N",
        "o"
      ],
      [
        "su",
        "p"
      ],
      [
        "1",
        "8"
      ],
      [
        "b",
        "le"
      ],
      [
        "is",
        "su"
      ],
      [
        "ie",
        "w"
      ],
      [
        "j",
        "ect"
      ],
      [
        "s",
        "s"
      ],
      [
        "as",
        "k"
      ],
      [
        "so",
        "ci"
      ],
      [
        "se",
        "t"
      ],
      [
        "um",
        "p"
      ],
      [
        "l",
        "ar"
      ],
      [
        "an",
        "k"
      ],
      [
        "c",
        "ol"
      ],
      [
        "t",
        "en"
      ],
      [
        "y",
        "s"
      ],
      [
        "as",
        "ed"
      ],
      [
        "l",
        "ong"
      ],
      [
        "p",
        "on"
      ],
      [
        "gen",
        "er"
      ],
      [
        ")",
        ","
      ],
      [
        "m",
        "em"
      ],
      [
        "it",
        "ed"
      ],
      [
        "st",
        "ate"
      ],
      [
        "th",
        "ose"
      ],
      [
        "th",
        "rough"
      ],
      [
        "t",
        "ur"
      ],
      [
        "al",
        "s"
      ],
      [
        "cor",
        "d"
      ],
      [
        "m",
        "ain"
      ],
      [
        "ib",
        "le"
      ],
      [
        "2",
        "0"
      ],
      [
        "re",
        "port"
      ],
      [
        "do",
        "es"
      ],
      [
        "we",
        "ek"
      ],
      [
        "w",
        "er"
      ],
      [
        "lo",
        "c"
      ],
      [
        "a",
        "th"
      ],
      [
        "in",
        "s"
      ],
      [
        "st",
        "art"
      ],
      [
        "f",
        "act"
      ],
      [
        "sh",
        "ow"
      ],
      [
        "A",
        "l"
      ],
      [
        "ic",
        "t"
      ],
      [
        "is",
        "m"
      ],
      [
        "sel",
        "f"
      ],
      [
        "an",
        "ge"
      ],
      [
        "c",
        "ar"
      ],
      [
        "st",
        "and"
      ],
      [
        "it",
        "ies"
      ],
      [
        "le",
        "g"
      ],
      [
        "s",
        "im"
      ],
      [
        "we",
        "en"
      ],
      [
        "Y",
        "ou"
      ],
      [
        "s",
        "m"
      ],
      [
        "t",
        "al"
      ],
      [
        "p",
        "ers"
      ],
      [
        "t",
        "ain"
      ],
      [
        "con",
        "d"
      ],
      [
        "i",
        "x"
      ],
      [
        "am",
        "p"
      ],
      [
        "le",
        "ar"
      ],
      [
        "Th",
        "ere"
      ],
      [
        "2",
        "00"
      ],
      [
        "su",
        "ch"
      ],
      [
        "ing",
        "s"
      ],
      [
        "il",
        "ity"
      ],
      [
        "to",
        "p"
      ],
      [
        "c",
        "he"
      ],
      [
        "an",
        "n"
      ],
      [
        "h",
        "ere"
      ],
      [
        "m",
        "ark"
      ],
      [
        "I",
        "f"
      ],
      [
        "in",
        "ce"
      ],
      [
        "v",
        "iew"
      ],
      [
        "comp",
        "le"
      ],
      [
        "con",
        "s"
      ],
      [
        "ak",
        "ing"
      ],
      [
        "a",
        "ve"
      ],
      [
        "ur",
        "ing"
      ],
      [
        "as",
        "h"
      ],
      [
        "ill",
        "ion"
      ],
      [
        "c",
        "es"
      ],
      [
        "F",
        "or"
      ],
      [
        "ul",
        "ar"
      ],
      [
        "be",
        "fore"
      ],
      [
        "t",
        "on"
      ],
      [
        "il",
        "y"
      ],
      [
        "ter",
        "s"
      ],
      [
        "bet",
        "ween"
      ],
      [
        "A",
        "r"
      ],
      [
        "qu",
        "est"
      ],
      [
        "st",
        "ill"
      ],
      [
        "say",
        "s"
      ],
      [
        "1",
        "1"
      ],
      [
        "F",
        "r"
      ],
      [
        "f",
        "f"
      ],
      [
        "n",
        "er"
      ],
      [
        "L",
        "e"
      ],
      [
        "v",
        "o"
      ],
      [
        "su",
        "l"
      ],
      [
        "g",
        "ame"
      ],
      [
        "3",
        "0"
      ],
      [
        "v",
        "en"
      ],
      [
        "wh",
        "ile"
      ],
      [
        "f",
        "ound"
      ],
      [
        "n",
        "g"
      ],
      [
        "p",
        "ut"
      ],
      [
        "su",
        "b"
      ],
      [
        "he",
        "ad"
      ],
      [
        "l",
        "es"
      ],
      [
        "ver",
        "n"
      ],
      [
        "l",
        "ed"
      ],
      [
        "o",
        "s"
      ],
      [
        "es",
        "e"
      ],
      [
        "pe",
        "ct"
      ],
      [
        "ef",
        "fect"
      ],
      [
        "incl",
        "ud"
      ],
      [
        "v",
        "ing"
      ],
      [
        "st",
        "em"
      ],
      [
        "go",
        "od"
      ],
      [
        "Th",
        "at"
      ],
      [
        "c",
        "lo"
      ],
      [
        "go",
        "vern"
      ],
      [
        "U",
        "S"
      ],
      [
        "1",
        "6"
      ],
      [
        "st",
        "e"
      ],
      [
        "h",
        "and"
      ],
      [
        "m",
        "ade"
      ],
      [
        "Tr",
        "ump"
      ],
      [
        "1",
        "7"
      ],
      [
        "l",
        "ine"
      ],
      [
        "The",
        "y"
      ],
      [
        "c",
        "ut"
      ],
      [
        "m",
        "s"
      ],
      [
        "wor",
        "ld"
      ],
      [
        "th",
        "ree"
      ],
      [
        "res",
        "pon"
      ],
      [
        "s",
        "ign"
      ],
      [
        "p",
        "ed"
      ],
      [
        "S",
        "e"
      ],
      [
        "des",
        "ign"
      ],
      [
        "t",
        "ake"
      ],
      [
        "str",
        "u"
      ],
      [
        "w",
        "om"
      ],
      [
        "ar",
        "r"
      ],
      [
        "le",
        "ad"
      ],
      [
        "l",
        "a"
      ],
      [
        "f",
        "ind"
      ],
      [
        "se",
        "arch"
      ],
      [
        "I",
        "s"
      ],
      [
        "en",
        "g"
      ],
      [
        "p",
        "lo"
      ],
      [
        "gr",
        "ou"
      ],
      [
        "-",
        "-"
      ],
      [
        "m",
        "a"
      ],
      [
        "again",
        "st"
      ],
      [
        "l",
        "aw"
      ],
      [
        "off",
        "ic"
      ],
      [
        "bo",
        "ok"
      ],
      [
        "v",
        "is"
      ],
      [
        "re",
        "ally"
      ],
      [
        "u",
        "ally"
      ],
      [
        "cont",
        "in"
      ],
      [
        "re",
        "al"
      ],
      [
        "s",
        "c"
      ],
      [
        "w",
        "ard"
      ],
      [
        "at",
        "or"
      ],
      [
        "li",
        "st"
      ],
      [
        "tur",
        "n"
      ],
      [
        "1",
        "3"
      ],
      [
        "ge",
        "st"
      ],
      [
        "sup",
        "port"
      ],
      [
        "d",
        "el"
      ],
      [
        "g",
        "an"
      ],
      [
        "s",
        "ame"
      ],
      [
        "le",
        "t"
      ],
      [
        "us",
        "s"
      ],
      [
        "iz",
        "e"
      ],
      [
        "ar",
        "ound"
      ],
      [
        "de",
        "c"
      ],
      [
        "o",
        "od"
      ],
      [
        "p",
        "ublic"
      ],
      [
        "u",
        "ro"
      ],
      [
        ".",
        "."
      ],
      [
        "1",
        "4"
      ],
      [
        "l",
        "it"
      ],
      [
        "in",
        "cre"
      ],
      [
        "ex",
        "per"
      ],
      [
        "99",
        "9"
      ],
      [
        "to",
        "o"
      ],
      [
        "iv",
        "es"
      ],
      [
        "i",
        "vers"
      ],
      [
        "su",
        "re"
      ],
      [
        "b",
        "ig"
      ],
      [
        "s",
        "ide"
      ],
      [
        "at",
        "ch"
      ],
      [
        "o",
        "st"
      ],
      [
        "ce",
        "pt"
      ],
      [
        "T",
        "e"
      ],
      [
        "v",
        "es"
      ],
      [
        "ar",
        "s"
      ],
      [
        "go",
        "t"
      ],
      [
        "sy",
        "stem"
      ],
      [
        "ist",
        "s"
      ],
      [
        "differ",
        "ent"
      ],
      [
        "i",
        "el"
      ],
      [
        "l",
        "in"
      ],
      [
        "O",
        "n"
      ],
      [
        "p",
        "ar"
      ],
      [
        "5",
        "0"
      ],
      [
        "et",
        "y"
      ],
      [
        "pos",
        "s"
      ],
      [
        "pers",
        "on"
      ],
      [
        "m",
        "iss"
      ],
      [
        "s",
        "ing"
      ],
      [
        "v",
        "ol"
      ],
      [
        "ve",
        "l"
      ],
      [
        ".",
        "["
      ],
      [
        "p",
        "ay"
      ],
      [
        "v",
        "al"
      ],
      [
        "ve",
        "lo"
      ],
      [
        "v",
        "ed"
      ],
      [
        "lo",
        "t"
      ],
      [
        "u",
        "b"
      ],
      [
        "de",
        "f"
      ],
      [
        "n",
        "um"
      ],
      [
        "ci",
        "al"
      ],
      [
        "al",
        "e"
      ],
      [
        "ic",
        "ally"
      ],
      [
        "us",
        "h"
      ],
      [
        "tr",
        "ans"
      ],
      [
        "ha",
        "pp"
      ],
      [
        "enc",
        "es"
      ],
      [
        "mon",
        "th"
      ],
      [
        "2",
        "2"
      ],
      [
        "ve",
        "st"
      ],
      [
        "re",
        "sul"
      ],
      [
        "am",
        "es"
      ],
      [
        "ol",
        "low"
      ],
      [
        "c",
        "ap"
      ],
      [
        "n",
        "ational"
      ],
      [
        "way",
        "s"
      ],
      [
        "d",
        "s"
      ],
      [
        "pol",
        "it"
      ],
      [
        "c",
        "our"
      ],
      [
        "a",
        "x"
      ],
      [
        "govern",
        "ment"
      ],
      [
        "are",
        "d"
      ],
      [
        "b",
        "re"
      ],
      [
        "l",
        "ight"
      ],
      [
        "or",
        "der"
      ],
      [
        "per",
        "cent"
      ],
      [
        "log",
        "y"
      ],
      [
        "a",
        "im"
      ],
      [
        "E",
        "uro"
      ],
      [
        "c",
        "a"
      ],
      [
        "re",
        "le"
      ],
      [
        "pl",
        "ace"
      ],
      [
        "we",
        "ver"
      ],
      [
        "C",
        "om"
      ],
      [
        "B",
        "e"
      ],
      [
        "v",
        "ir"
      ],
      [
        "de",
        "velo"
      ],
      [
        "us",
        "ing"
      ],
      [
        "t",
        "le"
      ],
      [
        "u",
        "res"
      ],
      [
        "i",
        "ver"
      ],
      [
        "00",
        "99"
      ],
      [
        "be",
        "li"
      ],
      [
        "are",
        "n"
      ],
      [
        "iz",
        "ed"
      ],
      [
        "pres",
        "s"
      ],
      [
        "issu",
        "e"
      ],
      [
        "i",
        "k"
      ],
      [
        "i",
        "er"
      ],
      [
        "bo",
        "th"
      ],
      [
        "a",
        "h"
      ],
      [
        "d",
        "et"
      ],
      [
        "cho",
        "ol"
      ],
      [
        "b",
        "od"
      ],
      [
        "2",
        "4"
      ],
      [
        "r",
        "un"
      ],
      [
        "op",
        "en"
      ],
      [
        "ap",
        "pe"
      ],
      [
        "d",
        "ire"
      ],
      [
        "re",
        "qu"
      ],
      [
        "li",
        "fe"
      ],
      [
        "en",
        "se"
      ],
      [
        "al",
        "th"
      ],
      [
        "ou",
        "se"
      ],
      [
        "ak",
        "es"
      ],
      [
        "pres",
        "ent"
      ],
      [
        "c",
        "lear"
      ],
      [
        "f",
        "am"
      ],
      [
        "i",
        "or"
      ],
      [
        "J",
        "o"
      ],
      [
        "ag",
        "es"
      ],
      [
        "w",
        "ar"
      ],
      [
        "c",
        "are"
      ],
      [
        "u",
        "es"
      ],
      [
        "ist",
        "r"
      ],
      [
        "2",
        "5"
      ],
      [
        "ex",
        "t"
      ],
      [
        "g",
        "er"
      ],
      [
        "s",
        "on"
      ],
      [
        "po",
        "t"
      ],
      [
        "N",
        "or"
      ],
      [
        "d",
        "uring"
      ],
      [
        "se",
        "ason"
      ],
      [
        "Americ",
        "an"
      ],
      [
        "C",
        "ell"
      ],
      [
        "hel",
        "p"
      ],
      [
        "H",
        "o"
      ],
      [
        "s",
        "ince"
      ],
      [
        "Wh",
        "en"
      ],
      [
        "ren",
        "t"
      ],
      [
        "as",
        "es"
      ],
      [
        "co",
        "st"
      ],
      [
        "0",
        "999"
      ],
      [
        "un",
        "t"
      ],
      [
        "con",
        "tr"
      ],
      [
        "fe",
        "el"
      ],
      [
        "to",
        "ld"
      ],
      [
        "A",
        "d"
      ],
      [
        "n",
        "et"
      ],
      [
        "ap",
        "p"
      ],
      [
        "part",
        "ic"
      ],
      [
        "re",
        "st"
      ],
      [
        "ch",
        "ange"
      ],
      [
        "qu",
        "e"
      ],
      [
        "thing",
        "s"
      ],
      [
        "st",
        "er"
      ],
      [
        "be",
        "st"
      ],
      [
        "ro",
        "ss"
      ],
      [
        "im",
        "port"
      ],
      [
        "an",
        "other"
      ],
      [
        "id",
        "er"
      ],
      [
        "ct",
        "or"
      ],
      [
        "b",
        "it"
      ],
      [
        "in",
        "vest"
      ],
      [
        "ex",
        "am"
      ],
      [
        "fe",
        "w"
      ],
      [
        "re",
        "search"
      ],
      [
        "po",
        "wer"
      ],
      [
        "ex",
        "pl"
      ],
      [
        "j",
        "o"
      ],
      [
        "C",
        "o"
      ],
      [
        "w",
        "on"
      ],
      [
        "ant",
        "s"
      ],
      [
        "S",
        "tem"
      ],
      [
        "te",
        "ch"
      ],
      [
        "ne",
        "xt"
      ],
      [
        "af",
        "f"
      ],
      [
        "sh",
        "ip"
      ],
      [
        "P",
        "r"
      ],
      [
        "m",
        "ight"
      ],
      [
        "v",
        "ent"
      ],
      [
        "pr",
        "of"
      ],
      [
        ")",
        ";"
      ],
      [
        "l",
        "im"
      ],
      [
        "t",
        "ion"
      ],
      [
        "a",
        "it"
      ],
      [
        "f",
        "t"
      ],
      [
        "some",
        "thing"
      ],
      [
        "plo",
        "y"
      ],
      [
        "f",
        "ollow"
      ],
      [
        "g",
        "reat"
      ],
      [
        "4",
        "7"
      ],
      [
        "6",
        "0"
      ],
      [
        "et",
        "s"
      ],
      [
        "Euro",
        "pe"
      ],
      [
        "se",
        "cond"
      ],
      [
        "cont",
        "ro"
      ],
      [
        "A",
        "t"
      ],
      [
        "S",
        "h"
      ],
      [
        "Wh",
        "at"
      ],
      [
        "e",
        "ach"
      ],
      [
        "p",
        "ass"
      ],
      [
        "0000",
        "00"
      ],
      [
        "cord",
        "ing"
      ],
      [
        "S",
        "T"
      ],
      [
        "lo",
        "ck"
      ],
      [
        "bu",
        "ild"
      ],
      [
        "at",
        "ure"
      ],
      [
        "ab",
        "ly"
      ],
      [
        "op",
        "er"
      ],
      [
        "includ",
        "ing"
      ],
      [
        "c",
        "y"
      ],
      [
        "m",
        "illion"
      ],
      [
        "pro",
        "ble"
      ],
      [
        "Ch",
        "r"
      ],
      [
        "read",
        "y"
      ],
      [
        "B",
        "r"
      ],
      [
        "l",
        "ing"
      ],
      [
        "ide",
        "o"
      ],
      [
        "ab",
        "ility"
      ],
      [
        "sm",
        "all"
      ],
      [
        "ch",
        "ild"
      ],
      [
        "ut",
        "ion"
      ],
      [
        "R",
        "o"
      ],
      [
        "m",
        "en"
      ],
      [
        "s",
        "k"
      ],
      [
        "end",
        "s"
      ],
      [
        "pr",
        "om"
      ],
      [
        "comp",
        "any"
      ],
      [
        "h",
        "ard"
      ],
      [
        "p",
        "or"
      ],
      [
        "u",
        "de"
      ],
      [
        "er",
        "al"
      ],
      [
        "ho",
        "to"
      ],
      [
        "p",
        "at"
      ],
      [
        "C",
        "an"
      ],
      [
        "u",
        "g"
      ],
      [
        "re",
        "ason"
      ],
      [
        "comm",
        "un"
      ],
      [
        "f",
        "ar"
      ],
      [
        "act",
        "ion"
      ],
      [
        "Te",
        "am"
      ],
      [
        "ic",
        "es"
      ],
      [
        "f",
        "il"
      ],
      [
        "j",
        "ob"
      ],
      [
        "v",
        "ious"
      ],
      [
        "w",
        "in"
      ],
      [
        "w",
        "rit"
      ],
      [
        "st",
        "it"
      ],
      [
        "ne",
        "ver"
      ],
      [
        "grou",
        "p"
      ],
      [
        "con",
        "om"
      ],
      [
        "se",
        "em"
      ],
      [
        "pol",
        "ice"
      ],
      [
        "lit",
        "tle"
      ],
      [
        "I",
        "S"
      ],
      [
        "P",
        "ro"
      ],
      [
        "S",
        "he"
      ],
      [
        "e",
        "le"
      ],
      [
        "n",
        "ess"
      ],
      [
        "ire",
        "d"
      ],
      [
        "lar",
        "ge"
      ],
      [
        "s",
        "chool"
      ],
      [
        "on",
        "t"
      ],
      [
        "bet",
        "ter"
      ],
      [
        "2",
        "3"
      ],
      [
        "cl",
        "aim"
      ],
      [
        "C",
        "l"
      ],
      [
        "w",
        "r"
      ],
      [
        "bod",
        "y"
      ],
      [
        "4",
        "0"
      ],
      [
        "f",
        "our"
      ],
      [
        "n",
        "or"
      ],
      [
        "v",
        "ar"
      ],
      [
        "R",
        "es"
      ],
      [
        "c",
        "ell"
      ],
      [
        "s",
        "it"
      ],
      [
        "al",
        "low"
      ],
      [
        "le",
        "vel"
      ],
      [
        "enc",
        "y"
      ],
      [
        "or",
        "k"
      ],
      [
        "ish",
        "ed"
      ],
      [
        "comple",
        "x"
      ],
      [
        "D",
        "r"
      ],
      [
        "h",
        "um"
      ],
      [
        "mo",
        "ve"
      ],
      [
        "ate",
        "ly"
      ],
      [
        "h",
        "ome"
      ],
      [
        "gr",
        "am"
      ],
      [
        "c",
        "ase"
      ],
      [
        "po",
        "st"
      ],
      [
        "2",
        "7"
      ],
      [
        "im",
        "es"
      ],
      [
        "su",
        "m"
      ],
      [
        "M",
        "ed"
      ],
      [
        "p",
        "ul"
      ],
      [
        "iv",
        "en"
      ],
      [
        "c",
        "ame"
      ],
      [
        "s",
        "ol"
      ],
      [
        "tal",
        "k"
      ],
      [
        "spe",
        "c"
      ],
      [
        "O",
        "b"
      ],
      [
        "i",
        "but"
      ],
      [
        "al",
        "i"
      ],
      [
        "pro",
        "cess"
      ],
      [
        "cl",
        "ass"
      ],
      [
        "Un",
        "ited"
      ],
      [
        "C",
        "ol"
      ],
      [
        "ke",
        "y"
      ],
      [
        "fer",
        "ence"
      ],
      [
        "inter",
        "est"
      ],
      [
        "one",
        "y"
      ],
      [
        "did",
        "n"
      ],
      [
        "produ",
        "ct"
      ],
      [
        "d",
        "om"
      ],
      [
        "it",
        "al"
      ],
      [
        "d",
        "i"
      ],
      [
        "M",
        "ar"
      ],
      [
        "b",
        "ers"
      ],
      [
        "n",
        "ight"
      ],
      [
        "fr",
        "i"
      ],
      [
        "co",
        "ver"
      ],
      [
        "su",
        "g"
      ],
      [
        "e",
        "ver"
      ],
      [
        "with",
        "out"
      ],
      [
        "th",
        "or"
      ],
      [
        "ch",
        "ang"
      ],
      [
        "ke",
        "ep"
      ],
      [
        "import",
        "ant"
      ],
      [
        "id",
        "ence"
      ],
      [
        "j",
        "or"
      ],
      [
        "in",
        "al"
      ],
      [
        "ut",
        "e"
      ],
      [
        "h",
        "old"
      ],
      [
        "re",
        "cent"
      ],
      [
        "at",
        "a"
      ],
      [
        "am",
        "a"
      ],
      [
        "ex",
        "pect"
      ],
      [
        "ust",
        "r"
      ],
      [
        "n",
        "on"
      ],
      [
        "t",
        "ell"
      ],
      [
        "does",
        "n"
      ],
      [
        "g",
        "y"
      ],
      [
        "ad",
        "v"
      ],
      [
        "c",
        "amp"
      ],
      [
        "u",
        "ck"
      ],
      [
        "le",
        "ft"
      ],
      [
        "se",
        "ver"
      ],
      [
        "2",
        "8"
      ],
      [
        "b",
        "al"
      ],
      [
        "b",
        "ased"
      ],
      [
        "p",
        "ast"
      ],
      [
        "ent",
        "er"
      ],
      [
        "res",
        "ident"
      ],
      [
        "end",
        "ed"
      ],
      [
        "im",
        "e"
      ],
      [
        "T",
        "o"
      ],
      [
        "in",
        "a"
      ],
      [
        "re",
        "main"
      ],
      [
        "wom",
        "en"
      ],
      [
        "of",
        "ten"
      ],
      [
        "num",
        "ber"
      ],
      [
        "end",
        "ing"
      ],
      [
        "coun",
        "try"
      ],
      [
        "ac",
        "y"
      ],
      [
        "s",
        "co"
      ],
      [
        "in",
        "ess"
      ],
      [
        "con",
        "serv"
      ],
      [
        "M",
        "ay"
      ],
      [
        "o",
        "th"
      ],
      [
        "b",
        "ro"
      ],
      [
        "b",
        "us"
      ],
      [
        "or",
        "gan"
      ],
      [
        "pro",
        "gram"
      ],
      [
        "e",
        "conom"
      ],
      [
        "p",
        "ur"
      ],
      [
        "st",
        "ory"
      ],
      [
        "cur",
        "rent"
      ],
      [
        "iel",
        "d"
      ],
      [
        "w",
        "ater"
      ],
      [
        "id",
        "ed"
      ],
      [
        "for",
        "t"
      ],
      [
        "like",
        "ly"
      ],
      [
        "2",
        "1"
      ],
      [
        "on",
        "es"
      ],
      [
        "G",
        "er"
      ],
      [
        "m",
        "oney"
      ],
      [
        "ne",
        "ar"
      ],
      [
        "poss",
        "ible"
      ],
      [
        "le",
        "ast"
      ],
      [
        "com",
        "es"
      ],
      [
        "ap",
        "pro"
      ],
      [
        "2",
        "6"
      ],
      [
        "O",
        "ne"
      ],
      [
        "qu",
        "al"
      ],
      [
        "ens",
        "ive"
      ],
      [
        "B",
        "l"
      ],
      [
        "ful",
        "l"
      ],
      [
        "mark",
        "et"
      ],
      [
        "P",
        "l"
      ],
      [
        "h",
        "ist"
      ],
      [
        "em",
        "ploy"
      ],
      [
        "en",
        "ough"
      ],
      [
        "ma",
        "jor"
      ],
      [
        "4",
        "6"
      ],
      [
        "f",
        "ac"
      ],
      [
        "ar",
        "ing"
      ],
      [
        "de",
        "p"
      ],
      [
        "cont",
        "ain"
      ],
      [
        "3",
        "7"
      ],
      [
        "al",
        "ways"
      ],
      [
        "new",
        "s"
      ],
      [
        "G",
        "r"
      ],
      [
        "ar",
        "gu"
      ],
      [
        "point",
        "s"
      ],
      [
        "cons",
        "ider"
      ],
      [
        "com",
        "ing"
      ],
      [
        "R",
        "ep"
      ],
      [
        "h",
        "y"
      ],
      [
        "g",
        "ed"
      ],
      [
        "re",
        "ce"
      ],
      [
        "ist",
        "er"
      ],
      [
        "Ho",
        "wever"
      ],
      [
        "g",
        "in"
      ],
      [
        "or",
        "d"
      ],
      [
        "ou",
        "th"
      ],
      [
        "call",
        "ed"
      ],
      [
        "M",
        "r"
      ],
      [
        "S",
        "te"
      ],
      [
        "e",
        "as"
      ],
      [
        "s",
        "ci"
      ],
      [
        "w",
        "he"
      ],
      [
        "pos",
        "ed"
      ],
      [
        "att",
        "ack"
      ],
      [
        "form",
        "ation"
      ],
      [
        "4",
        "5"
      ],
      [
        "O",
        "r"
      ],
      [
        "h",
        "n"
      ],
      [
        "o",
        "g"
      ],
      [
        "is",
        "ed"
      ],
      [
        "wh",
        "y"
      ],
      [
        "contin",
        "u"
      ],
      [
        "a",
        "way"
      ],
      [
        "f",
        "ace"
      ],
      [
        "n",
        "ed"
      ],
      [
        "he",
        "alth"
      ],
      [
        "un",
        "e"
      ],
      [
        "pl",
        "ic"
      ],
      [
        "pres",
        "ident"
      ],
      [
        "happ",
        "en"
      ],
      [
        "develo",
        "p"
      ],
      [
        "Can",
        "ad"
      ],
      [
        "k",
        "ind"
      ],
      [
        "M",
        "c"
      ],
      [
        "M",
        "on"
      ],
      [
        "f",
        "ree"
      ],
      [
        "g",
        "un"
      ],
      [
        "o",
        "ot"
      ],
      [
        "t",
        "t"
      ],
      [
        "y",
        "n"
      ],
      [
        "Chr",
        "ist"
      ],
      [
        "1",
        "99"
      ],
      [
        "a",
        "ther"
      ],
      [
        "y",
        "ing"
      ],
      [
        "de",
        "al"
      ],
      [
        "iv",
        "ed"
      ],
      [
        "In",
        "ter"
      ],
      [
        "B",
        "rit"
      ],
      [
        "pol",
        "ic"
      ],
      [
        "know",
        "n"
      ],
      [
        "ivers",
        "ity"
      ],
      [
        "A",
        "f"
      ],
      [
        "i",
        "ans"
      ],
      [
        "t",
        "ax"
      ],
      [
        "al",
        "k"
      ],
      [
        "un",
        "d"
      ],
      [
        "quest",
        "ion"
      ],
      [
        "exper",
        "i"
      ],
      [
        "3",
        "5"
      ],
      [
        "Y",
        "ork"
      ],
      [
        "id",
        "es"
      ],
      [
        "C",
        "ar"
      ],
      [
        "un",
        "ch"
      ],
      [
        "if",
        "ied"
      ],
      [
        "unt",
        "il"
      ],
      [
        "8",
        "0"
      ],
      [
        "W",
        "est"
      ],
      [
        "c",
        "u"
      ],
      [
        "r",
        "ic"
      ],
      [
        "im",
        "um"
      ],
      [
        "mo",
        "cr"
      ],
      [
        "pro",
        "ject"
      ],
      [
        "work",
        "ing"
      ],
      [
        "ion",
        "al"
      ],
      [
        "ag",
        "o"
      ],
      [
        "b",
        "all"
      ],
      [
        "m",
        "et"
      ],
      [
        "se",
        "x"
      ],
      [
        "ard",
        "s"
      ],
      [
        "ask",
        "ed"
      ],
      [
        "w",
        "it"
      ],
      [
        "at",
        "ur"
      ],
      [
        "ST",
        "L"
      ],
      [
        "g",
        "row"
      ],
      [
        "w",
        "atch"
      ],
      [
        "on",
        "s"
      ],
      [
        "Jo",
        "hn"
      ],
      [
        ".",
        ","
      ],
      [
        "4",
        "3"
      ],
      [
        "S",
        "y"
      ],
      [
        "me",
        "an"
      ],
      [
        "cr",
        "it"
      ],
      [
        "ty",
        "p"
      ],
      [
        "h",
        "al"
      ],
      [
        "l",
        "ater"
      ],
      [
        "m",
        "aking"
      ],
      [
        "st",
        "re"
      ],
      [
        "al",
        "ready"
      ],
      [
        "is",
        "ing"
      ],
      [
        "ir",
        "d"
      ],
      [
        "char",
        "ac"
      ],
      [
        "A",
        "R"
      ],
      [
        "n",
        "ame"
      ],
      [
        "s",
        "our"
      ],
      [
        "ic",
        "le"
      ],
      [
        "ast",
        "er"
      ],
      [
        "fam",
        "ily"
      ],
      [
        "m",
        "ust"
      ],
      [
        "re",
        "f"
      ],
      [
        "im",
        "m"
      ],
      [
        "iv",
        "ing"
      ],
      [
        "E",
        "ng"
      ],
      [
        "J",
        "ap"
      ],
      [
        "f",
        "ic"
      ],
      [
        "t",
        "reat"
      ],
      [
        "\u0000\u0000",
        "\u0000"
      ],
      [
        "su",
        "c"
      ],
      [
        "pro",
        "te"
      ],
      [
        "Jap",
        "an"
      ],
      [
        "ty",
        "pe"
      ],
      [
        "cer",
        "tain"
      ],
      [
        "ste",
        "ad"
      ],
      [
        "a",
        "ver"
      ],
      [
        "on",
        "ment"
      ],
      [
        "is",
        "ion"
      ],
      [
        "ic",
        "ine"
      ],
      [
        "for",
        "ce"
      ],
      [
        "polit",
        "ical"
      ],
      [
        "m",
        "it"
      ],
      [
        "u",
        "c"
      ],
      [
        "to",
        "ok"
      ],
      [
        "do",
        "ing"
      ],
      [
        "In",
        "d"
      ],
      [
        "exam",
        "ple"
      ],
      [
        "3",
        "2"
      ],
      [
        "il",
        "ar"
      ],
      [
        "sug",
        "gest"
      ],
      [
        "a",
        "id"
      ],
      [
        "c",
        "ity"
      ],
      [
        "ct",
        "ed"
      ],
      [
        "month",
        "s"
      ],
      [
        "sever",
        "al"
      ],
      [
        "d",
        "ata"
      ],
      [
        "you",
        "ng"
      ],
      [
        "act",
        "ually"
      ],
      [
        "ial",
        "s"
      ],
      [
        "E",
        "x"
      ],
      [
        "m",
        "ind"
      ],
      [
        "day",
        "s"
      ],
      [
        "hum",
        "an"
      ],
      [
        "6",
        "5"
      ],
      [
        "P",
        "ol"
      ],
      [
        "f",
        "ight"
      ],
      [
        "g",
        "es"
      ],
      [
        "be",
        "come"
      ],
      [
        "ag",
        "ed"
      ],
      [
        "ne",
        "y"
      ],
      [
        "ear",
        "ch"
      ],
      [
        "ev",
        "ent"
      ],
      [
        "iz",
        "ation"
      ],
      [
        "A",
        "ll"
      ],
      [
        "ut",
        "ure"
      ],
      [
        "gr",
        "ap"
      ],
      [
        "t",
        "ar"
      ],
      [
        "ter",
        "n"
      ],
      [
        "7",
        "0"
      ],
      [
        "D",
        "en"
      ],
      [
        "c",
        "uss"
      ],
      [
        "f",
        "ire"
      ],
      [
        "m",
        "id"
      ],
      [
        "ful",
        "ly"
      ],
      [
        "b",
        "ur"
      ],
      [
        "d",
        "en"
      ],
      [
        "v",
        "i"
      ],
      [
        "ac",
        "ross"
      ],
      [
        "pl",
        "an"
      ],
      [
        "me",
        "ans"
      ],
      [
        "af",
        "t"
      ],
      [
        "ie",
        "f"
      ],
      [
        "mem",
        "ber"
      ],
      [
        "A",
        "c"
      ],
      [
        "i",
        "ally"
      ],
      [
        "Th",
        "ese"
      ],
      [
        "cur",
        "ity"
      ],
      [
        "try",
        "ing"
      ],
      [
        "high",
        "er"
      ],
      [
        ".",
        "\u0000\u0000\u0000\u0000\u0000\u0000\u0000\u0000\u0000\u0000\u0000\u0000\u0000\u0000\u0000\u0000\u0000\u0000\u0000\u0000\u0000\u0000\u0000\u0000\u0000\u0000\u0000\u0000\u0000\u0000\u0000\u0000\u0000\u0000\u0000\u0000\u0000\u0000\u0000\u0000\u0000\u0000\u0000\u0000\u0000\u0000\u0000\u0000\u0000\u0000\u0000\u0000\u0000\u0000\u0000\u0000\u0000\u0000\u0000\u0000\u0000\u0000\u0000\u0000\u0000\u0000\u0000\u0000\u0000\u0000\u0000\u0000\u0000\u0000\u0000\u0000\u0000\u0000\u0000\u0000\u0000\u0000\u0000\u0000\u0000\u0000\u0000\u0000\u0000\u0000\u0000\u0000\u0000\u0000\u0000\u0000\u0000\u0000\u0000\u0000\u0000\u0000\u0000\u0000\u0000\u0000\u0000\u0000\u0000\u0000\u0000\u0000\u0000\u0000\u0000\u0000\u0000\u0000\u0000\u0000\u0000\u0000\u0000\u0000\u0000\u0000\u0000\u0000\u0000\u0000\u0000\u0000\u0000\u0000\u0000\u0000\u0000\u0000\u0000\u0000\u0000\u0000\u0000\u0000\u0000\u0000\u0000\u0000\u0000\u0000\u0000\u0000\u0000\u0000\u0000\u0000\u0000\u0000\u0000\u0000\u0000\u0000\u0000\u0000\u0000\u0000\u0000\u0000\u0000\u0000\u0000\u0000\u0000\u0000\u0000\u0000\u0000\u0000\u0000\u0000\u0000\u0000\u0000\u0000\u0000\u0000\u0000\u0000\u0000\u0000\u0000\u0000\u0000\u0000\u0000\u0000\u0000\u0000\u0000\u0000\u0000\u0000\u0000\u0000\u0000\u0000\u0000\u0000\u0000\u0000\u0000\u0000\u0000\u0000\u0000\u0000\u0000\u0000\u0000\u0000\u0000\u0000\u0000\u0000\u0000\u0000\u0000\u0000\u0000\u0000\u0000\u0000\u0000\u0000\u0000\u0000\u0000\u0000\u0000\u0000\u0000\u0000\u0000\u0000\u0000\u0000\u0000\u0000\u0000\u0000\u0000\u0000\u0000\u0000\u0000\u0000"
      ],
      [
        "d",
        "one"
      ],
      [
        "al",
        "loc"
      ],
      [
        "ough",
        "t"
      ],
      [
        "ev",
        "idence"
      ],
      [
        "coun",
        "t"
      ],
      [
        "spec",
        "ific"
      ],
      [
        "b",
        "en"
      ],
      [
        "p",
        "age"
      ],
      [
        "s",
        "of"
      ],
      [
        "str",
        "ong"
      ],
      [
        "Res",
        "earch"
      ],
      [
        "G",
        "o"
      ],
      [
        "ge",
        "ther"
      ],
      [
        "invest",
        "ig"
      ],
      [
        "S",
        "p"
      ],
      [
        "e",
        "lect"
      ],
      [
        "i",
        "ke"
      ],
      [
        "fr",
        "ont"
      ],
      [
        "cour",
        "se"
      ],
      [
        "vir",
        "onment"
      ],
      [
        "W",
        "ith"
      ],
      [
        "f",
        "ed"
      ],
      [
        "l",
        "ate"
      ],
      [
        "ha",
        "ving"
      ],
      [
        "ear",
        "ly"
      ],
      [
        "pr",
        "act"
      ],
      [
        "complex",
        "ity"
      ],
      [
        "se",
        "en"
      ],
      [
        "au",
        "thor"
      ],
      [
        "tim",
        "es"
      ],
      [
        "St",
        "ate"
      ],
      [
        "fun",
        "d"
      ],
      [
        "whe",
        "ther"
      ],
      [
        "1",
        "00"
      ],
      [
        "f",
        "ive"
      ],
      [
        "u",
        "ary"
      ],
      [
        "on",
        "ce"
      ],
      [
        "at",
        "ives"
      ],
      [
        "le",
        "y"
      ],
      [
        "wh",
        "ite"
      ],
      [
        "ith",
        "er"
      ],
      [
        "gr",
        "ound"
      ],
      [
        "ition",
        "al"
      ],
      [
        "prof",
        "ess"
      ],
      [
        "M",
        "in"
      ],
      [
        "e",
        "ve"
      ],
      [
        "r",
        "u"
      ],
      [
        "ex",
        "p"
      ],
      [
        "R",
        "ed"
      ],
      [
        "proble",
        "m"
      ],
      [
        "bus",
        "iness"
      ],
      [
        "Rep",
        "ublic"
      ],
      [
        "a",
        "z"
      ],
      [
        "a",
        "ign"
      ],
      [
        "g",
        "ive"
      ],
      [
        "g",
        "ames"
      ],
      [
        "s",
        "en"
      ],
      [
        "an",
        "al"
      ],
      [
        "play",
        "ers"
      ],
      [
        "med",
        "ia"
      ],
      [
        "So",
        "ci"
      ],
      [
        "am",
        "ong"
      ],
      [
        "me",
        "as"
      ],
      [
        "S",
        "ome"
      ],
      [
        "ed",
        "it"
      ],
      [
        "stud",
        "ies"
      ],
      [
        "m",
        "akes"
      ],
      [
        "in",
        "fl"
      ],
      [
        "pos",
        "ition"
      ],
      [
        "rel",
        "ated"
      ],
      [
        "partic",
        "ular"
      ],
      [
        "b",
        "as"
      ],
      [
        "f",
        "ig"
      ],
      [
        "f",
        "uture"
      ],
      [
        "m",
        "or"
      ],
      [
        "at",
        "s"
      ],
      [
        "at",
        "ors"
      ],
      [
        "for",
        "mer"
      ],
      [
        "get",
        "ting"
      ],
      [
        "201",
        "9"
      ],
      [
        "des",
        "cr"
      ],
      [
        "wom",
        "an"
      ],
      [
        "sing",
        "le"
      ],
      [
        "2",
        "9"
      ],
      [
        "B",
        "el"
      ],
      [
        "E",
        "A"
      ],
      [
        "J",
        "ust"
      ],
      [
        "mo",
        "del"
      ],
      [
        "ur",
        "ther"
      ],
      [
        "3",
        "6"
      ],
      [
        "in",
        "formation"
      ],
      [
        "al",
        "ong"
      ],
      [
        "ap",
        "er"
      ],
      [
        "under",
        "stand"
      ],
      [
        "stud",
        "y"
      ],
      [
        "f",
        "oc"
      ],
      [
        "m",
        "il"
      ],
      [
        "w",
        "ent"
      ],
      [
        "st",
        "op"
      ],
      [
        "to",
        "gether"
      ],
      [
        "om",
        "et"
      ],
      [
        "us",
        "es"
      ],
      [
        "pro",
        "b"
      ],
      [
        "St",
        "ates"
      ],
      [
        "pot",
        "ent"
      ],
      [
        "contro",
        "l"
      ],
      [
        "Af",
        "ter"
      ],
      [
        "f",
        "el"
      ],
      [
        "beli",
        "eve"
      ],
      [
        "5",
        "5"
      ],
      [
        "b",
        "or"
      ],
      [
        "f",
        "ail"
      ],
      [
        "i",
        "ent"
      ],
      [
        "m",
        "ber"
      ],
      [
        "s",
        "ent"
      ],
      [
        "s",
        "po"
      ],
      [
        "on",
        "d"
      ],
      [
        "with",
        "in"
      ],
      [
        "av",
        "ail"
      ],
      [
        "ro",
        "om"
      ],
      [
        "ag",
        "ue"
      ],
      [
        "some",
        "one"
      ],
      [
        "resul",
        "ts"
      ],
      [
        "h",
        "our"
      ],
      [
        "k",
        "ill"
      ],
      [
        "St",
        "ud"
      ],
      [
        "child",
        "ren"
      ],
      [
        "camp",
        "aign"
      ],
      [
        "P",
        "resident"
      ],
      [
        "is",
        "n"
      ],
      [
        "lo",
        "ad"
      ],
      [
        "ex",
        "ist"
      ],
      [
        "report",
        "ed"
      ],
      [
        "f",
        "av"
      ],
      [
        "m",
        "om"
      ],
      [
        "it",
        "ive"
      ],
      [
        "per",
        "for"
      ],
      [
        "pre",
        "t"
      ],
      [
        "E",
        "d"
      ],
      [
        "o",
        "ve"
      ],
      [
        "al",
        "most"
      ],
      [
        "are",
        "a"
      ],
      [
        "de",
        "fin"
      ],
      [
        "qu",
        "ick"
      ],
      [
        "4",
        "8"
      ],
      [
        "D",
        "on"
      ],
      [
        "y",
        "et"
      ],
      [
        "in",
        "vol"
      ],
      [
        "and",
        "s"
      ],
      [
        "dis",
        "cuss"
      ],
      [
        "say",
        "ing"
      ],
      [
        "look",
        "ing"
      ],
      [
        "expl",
        "ain"
      ],
      [
        "C",
        "oun"
      ],
      [
        "s",
        "ite"
      ],
      [
        "en",
        "vironment"
      ],
      [
        "or",
        "ig"
      ],
      [
        "it",
        "ions"
      ],
      [
        "te",
        "xt"
      ],
      [
        "pl",
        "ac"
      ],
      [
        "med",
        "i"
      ],
      [
        "in",
        "ed"
      ],
      [
        "al",
        "es"
      ],
      [
        "tr",
        "a"
      ],
      [
        "act",
        "iv"
      ],
      [
        "ide",
        "a"
      ],
      [
        "M",
        "ic"
      ],
      [
        "p",
        "ly"
      ],
      [
        "re",
        "ach"
      ],
      [
        "to",
        "day"
      ],
      [
        "comp",
        "an"
      ],
      [
        "Wh",
        "ile"
      ],
      [
        "fun",
        "ction"
      ],
      [
        "e",
        "cut"
      ],
      [
        "f",
        "all"
      ],
      [
        "g",
        "iven"
      ],
      [
        "i",
        "j"
      ],
      [
        "n",
        "es"
      ],
      [
        "is",
        "on"
      ],
      [
        "though",
        "t"
      ],
      [
        "clo",
        "se"
      ],
      [
        "sign",
        "ific"
      ],
      [
        "stru",
        "ct"
      ],
      [
        "dire",
        "ct"
      ],
      [
        "Med",
        "icine"
      ],
      [
        "M",
        "an"
      ],
      [
        "R",
        "uss"
      ],
      [
        "p",
        "ubl"
      ],
      [
        "to",
        "w"
      ],
      [
        "lo",
        "ve"
      ],
      [
        "con",
        "st"
      ],
      [
        "de",
        "b"
      ],
      [
        "any",
        "thing"
      ],
      [
        "ann",
        "oun"
      ],
      [
        "effect",
        "s"
      ],
      [
        "B",
        "C"
      ],
      [
        "D",
        "av"
      ],
      [
        "H",
        "is"
      ],
      [
        "a",
        "ul"
      ],
      [
        "g",
        "ress"
      ],
      [
        "s",
        "l"
      ],
      [
        "of",
        "fer"
      ],
      [
        "ure",
        "d"
      ],
      [
        "mat",
        "ch"
      ],
      [
        "miss",
        "ion"
      ],
      [
        "bre",
        "ak"
      ],
      [
        "h",
        "ar"
      ],
      [
        "s",
        "ound"
      ],
      [
        "li",
        "ber"
      ],
      [
        "bl",
        "ack"
      ],
      [
        "Un",
        "iversity"
      ],
      [
        "start",
        "ed"
      ],
      [
        "sim",
        "ilar"
      ],
      [
        "Brit",
        "ish"
      ],
      [
        "hal",
        "f"
      ],
      [
        "7",
        "5"
      ],
      [
        "d",
        "ro"
      ],
      [
        "u",
        "ation"
      ],
      [
        "at",
        "ic"
      ],
      [
        "st",
        "ep"
      ],
      [
        "it",
        "er"
      ],
      [
        "soci",
        "al"
      ],
      [
        "Nor",
        "th"
      ],
      [
        "tech",
        "no"
      ],
      [
        "b",
        "illion"
      ],
      [
        "r",
        "is"
      ],
      [
        "r",
        "ad"
      ],
      [
        "su",
        "per"
      ],
      [
        "pre",
        "vious"
      ],
      [
        "min",
        "imum"
      ],
      [
        "loc",
        "al"
      ],
      [
        "C",
        "ong"
      ],
      [
        "e",
        "ch"
      ],
      [
        "m",
        "ar"
      ],
      [
        "p",
        "hoto"
      ],
      [
        "re",
        "en"
      ],
      [
        "ent",
        "ire"
      ],
      [
        "au",
        "to"
      ],
      [
        "au",
        "gh"
      ],
      [
        "Americ",
        "a"
      ],
      [
        "gener",
        "ative"
      ],
      [
        "M",
        "y"
      ],
      [
        "W",
        "or"
      ],
      [
        "r",
        "or"
      ],
      [
        "or",
        "ies"
      ],
      [
        "ac",
        "cording"
      ],
      [
        "ur",
        "y"
      ],
      [
        "leg",
        "al"
      ],
      [
        "commun",
        "ity"
      ],
      [
        "charac",
        "ter"
      ],
      [
        "Cong",
        "ress"
      ],
      [
        "B",
        "er"
      ],
      [
        "c",
        "ult"
      ],
      [
        "s",
        "cr"
      ],
      [
        "s",
        "ize"
      ],
      [
        "ag",
        "ree"
      ],
      [
        "ak",
        "en"
      ],
      [
        "201",
        "6"
      ],
      [
        "spe",
        "cial"
      ],
      [
        "respon",
        "se"
      ],
      [
        "A",
        "S"
      ],
      [
        "E",
        "R"
      ],
      [
        "rel",
        "ation"
      ],
      [
        "De",
        "mocr"
      ],
      [
        "issu",
        "es"
      ],
      [
        "Soci",
        "ety"
      ],
      [
        "r",
        "ac"
      ],
      [
        "in",
        "es"
      ],
      [
        "el",
        "se"
      ],
      [
        "ra",
        "ther"
      ],
      [
        "F",
        "l"
      ],
      [
        "b",
        "lock"
      ],
      [
        "er",
        "ing"
      ],
      [
        "iv",
        "id"
      ],
      [
        "ail",
        "s"
      ],
      [
        "I",
        "m"
      ],
      [
        "c",
        "le"
      ],
      [
        "re",
        "turn"
      ],
      [
        "tr",
        "ain"
      ],
      [
        "ust",
        "om"
      ],
      [
        "ust",
        "ry"
      ],
      [
        "3",
        "8"
      ],
      [
        "N",
        "ow"
      ],
      [
        "d",
        "ate"
      ],
      [
        "de",
        "st"
      ],
      [
        "pr",
        "iv"
      ],
      [
        "log",
        "ical"
      ],
      [
        "mem",
        "ory"
      ],
      [
        "respon",
        "s"
      ],
      [
        "9",
        "0"
      ],
      [
        "a",
        "i"
      ],
      [
        "h",
        "ouse"
      ],
      [
        "w",
        "ide"
      ],
      [
        "w",
        "age"
      ],
      [
        "re",
        "cord"
      ],
      [
        "ac",
        "c"
      ],
      [
        "avail",
        "able"
      ],
      [
        "b",
        "ar"
      ],
      [
        "s",
        "ort"
      ],
      [
        "re",
        "du"
      ],
      [
        "ro",
        "le"
      ],
      [
        "con",
        "cer"
      ],
      [
        "ci",
        "ally"
      ],
      [
        "201",
        "4"
      ],
      [
        "Re",
        "generative"
      ],
      [
        "b",
        "ad"
      ],
      [
        "e",
        "y"
      ],
      [
        "il",
        "li"
      ],
      [
        "de",
        "ath"
      ],
      [
        "tr",
        "ies"
      ],
      [
        "add",
        "ed"
      ],
      [
        "signific",
        "ant"
      ],
      [
        "es",
        "pe"
      ],
      [
        "sh",
        "ort"
      ],
      [
        "sp",
        "ace"
      ],
      [
        "ple",
        "ment"
      ],
      [
        "..",
        "."
      ],
      [
        "C",
        "ali"
      ],
      [
        "S",
        "u"
      ],
      [
        "c",
        "it"
      ],
      [
        "f",
        "ield"
      ],
      [
        "m",
        "ult"
      ],
      [
        "p",
        "en"
      ],
      [
        "v",
        "an"
      ],
      [
        "th",
        "ird"
      ],
      [
        "part",
        "ment"
      ],
      [
        "Cl",
        "int"
      ],
      [
        "var",
        "i"
      ],
      [
        "B",
        "ar"
      ],
      [
        "M",
        "o"
      ],
      [
        "e",
        "ither"
      ],
      [
        "l",
        "s"
      ],
      [
        "n",
        "al"
      ],
      [
        "p",
        "an"
      ],
      [
        "in",
        "st"
      ],
      [
        "in",
        "ation"
      ],
      [
        "ab",
        "or"
      ],
      [
        "play",
        "er"
      ],
      [
        "incl",
        "ude"
      ],
      [
        "mem",
        "bers"
      ],
      [
        "ste",
        "in"
      ],
      [
        "d",
        "ist"
      ],
      [
        "h",
        "ind"
      ],
      [
        "r",
        "ound"
      ],
      [
        "t",
        "aking"
      ],
      [
        "in",
        "it"
      ],
      [
        "for",
        "n"
      ],
      [
[...]
